{
  "version": "1.0",
  "truncation": null,
  "padding": null,
  "added_tokens": [
    {
      "id": 0,
      "content": "[UNK]",
      "single_word": false,
      "lstrip": false,
      "rstrip": false,
      "normalized": false,
      "special": true
    },
    {
      "id": 1,
      "content": "[PAD]",
      "single_word": false,
      "lstrip": false,
      "rstrip": false,
      "normalized": false,
      "special": true
    },
    {
      "id": 2,
      "content": "[SOS]",
      "single_word": false,
      "lstrip": false,
      "rstrip": false,
      "normalized": false,
      "special": true
    },
    {
      "id": 3,
      "content": "[EOS]",
      "single_word": false,
      "lstrip": false,
      "rstrip": false,
      "normalized": false,
      "special": true
    }
  ],
  "normalizer": null,
  "pre_tokenizer": {
    "type": "Whitespace"
  },
  "post_processor": null,
  "decoder": null,
  "model": {
    "type": "BPE",
    "dropout": null,
    "unk_token": "[UNK]",
    "continuing_subword_prefix": null,
    "end_of_word_suffix": null,
    "fuse_unk": false,
    "byte_fallback": false,
    "ignore_merges": false,
    "vocab": {
      "[UNK]": 0,
      "[PAD]": 1,
      "[SOS]": 2,
      "[EOS]": 3,
      "!": 4,
      "\"": 5,
      ",": 6,
      ".": 7,
      ":": 8,
      "?": 9,
      "[": 10,
      "]": 11,
      "a": 12,
      "b": 13,
      "c": 14,
      "d": 15,
      "e": 16,
      "f": 17,
      "g": 18,
      "h": 19,
      "i": 20,
      "j": 21,
      "k": 22,
      "l": 23,
      "m": 24,
      "n": 25,
      "o": 26,
      "p": 27,
      "q": 28,
      "r": 29,
      "s": 30,
      "t": 31,
      "u": 32,
      "v": 33,
      "w": 34,
      "x": 35,
      "y": 36,
      "z": 37,
      "{": 38,
      "}": 39,
      "th": 40,
      "in": 41,
      "the": 42,
      "an": 43,
      "er": 44,
      "on": 45,
      "re": 46,
      "at": 47,
      "en": 48,
      "is": 49,
      "es": 50,
      "or": 51,
      "ar": 52,
      "al": 53,
      "ed": 54,
      "to": 55,
      "as": 56,
      "and": 57,
      "ing": 58,
      "it": 59,
      "ou": 60,
      "of": 61,
      "ion": 62,
      "ic": 63,
      "le": 64,
      "st": 65,
      "ro": 66,
      "ent": 67,
      "ch": 68,
      "se": 69,
      "il": 70,
      "be": 71,
      "wh": 72,
      "me": 73,
      "ct": 74,
      "de": 75,
      "ve": 76,
      "for": 77,
      "ol": 78,
      "ly": 79,
      "ce": 80,
      "ow": 81,
      "ge": 82,
      "ut": 83,
      "he": 84,
      "ad": 85,
      "co": 86,
      "est": 87,
      "am": 88,
      "that": 89,
      "su": 90,
      "ation": 91,
      "ir": 92,
      "ot": 93,
      "id": 94,
      "un": 95,
      "ver": 96,
      "ay": 97,
      "con": 98,
      "im": 99,
      "ig": 100,
      "ter": 101,
      "wi": 102,
      "are": 103,
      "ur": 104,
      "tr": 105,
      "ab": 106,
      "ans": 107,
      "mo": 108,
      "us": 109,
      "\":": 110,
      "qu": 111,
      "ne": 112,
      "with": 113,
      "pe": 114,
      "so": 115,
      "pro": 116,
      "wer": 117,
      "te": 118,
      "ac": 119,
      "pl": 120,
      "if": 121,
      "ap": 122,
      "was": 123,
      "op": 124,
      "ul": 125,
      "ie": 126,
      "ate": 127,
      "com": 128,
      "ke": 129,
      "by": 130,
      "all": 131,
      "you": 132,
      "we": 133,
      "ther": 134,
      "iv": 135,
      "lo": 136,
      "ers": 137,
      "ld": 138,
      "res": 139,
      "this": 140,
      "out": 141,
      "art": 142,
      "ma": 143,
      "ill": 144,
      "get": 145,
      "oun": 146,
      "sh": 147,
      "put": 148,
      "his": 149,
      "po": 150,
      "ment": 151,
      "answer": 152,
      "rom": 153,
      "ex": 154,
      "not": 155,
      "ant": 156,
      "ess": 157,
      "ri": 158,
      "igh": 159,
      "from": 160,
      "ha": 161,
      "act": 162,
      "ag": 163,
      "man": 164,
      "one": 165,
      "ive": 166,
      "ity": 167,
      "tar": 168,
      "do": 169,
      "quest": 170,
      "cl": 171,
      "input": 172,
      "her": 173,
      "wor": 174,
      "question": 175,
      "ain": 176,
      "ies": 177,
      "target": 178,
      "can": 179,
      ".\"": 180,
      "fe": 181,
      "},": 182,
      "bo": 183,
      "ence": 184,
      "ist": 185,
      "ll": 186,
      "per": 187,
      "end": 188,
      "um": 189,
      "ich": 190,
      "ind": 191,
      "au": 192,
      "low": 193,
      "they": 194,
      "ould": 195,
      "\",": 196,
      "gr": 197,
      "but": 198,
      "go": 199,
      "sa": 200,
      "ally": 201,
      "form": 202,
      "af": 203,
      "gh": 204,
      "fo": 205,
      "ts": 206,
      "have": 207,
      "li": 208,
      "has": 209,
      "which": 210,
      "no": 211,
      "ard": 212,
      "si": 213,
      "od": 214,
      "who": 215,
      "por": 216,
      "ish": 217,
      "ated": 218,
      "their": 219,
      "king": 220,
      "der": 221,
      "em": 222,
      "ast": 223,
      "ions": 224,
      "sent": 225,
      "our": 226,
      "ight": 227,
      "ia": 228,
      "vie": 229,
      "ine": 230,
      "pr": 231,
      "ong": 232,
      "up": 233,
      "ud": 234,
      "ack": 235,
      "br": 236,
      "du": 237,
      "ear": 238,
      "wo": 239,
      "ound": 240,
      "age": 241,
      "ber": 242,
      "ci": 243,
      "fol": 244,
      "now": 245,
      "about": 246,
      "ough": 247,
      "other": 248,
      "pos": 249,
      "what": 250,
      "cor": 251,
      "ta": 252,
      "ep": 253,
      "ire": 254,
      "she": 255,
      "ous": 256,
      "follow": 257,
      "pre": 258,
      "str": 259,
      "ple": 260,
      "its": 261,
      "ice": 262,
      "there": 263,
      "mar": 264,
      "ase": 265,
      "ti": 266,
      "sp": 267,
      "av": 268,
      "ure": 269,
      "some": 270,
      "cre": 271,
      "el": 272,
      "ho": 273,
      "part": 274,
      "will": 275,
      "dis": 276,
      "bl": 277,
      "ass": 278,
      "gu": 279,
      "new": 280,
      "ach": 281,
      "port": 282,
      "giv": 283,
      "pres": 284,
      "more": 285,
      "ame": 286,
      "ty": 287,
      "able": 288,
      "sentence": 289,
      "land": 290,
      "ian": 291,
      "fer": 292,
      "also": 293,
      "following": 294,
      "ks": 295,
      "ace": 296,
      "how": 297,
      "ical": 298,
      "coun": 299,
      "ater": 300,
      "xt": 301,
      "fir": 302,
      "ip": 303,
      "when": 304,
      "jo": 305,
      "my": 306,
      "given": 307,
      "cho": 308,
      "spe": 309,
      "ite": 310,
      "ble": 311,
      "day": 312,
      "had": 313,
      "ev": 314,
      "iz": 315,
      "aw": 316,
      "after": 317,
      "would": 318,
      "ph": 319,
      "ile": 320,
      "ates": 321,
      "ust": 322,
      "off": 323,
      "any": 324,
      "over": 325,
      "cr": 326,
      "ree": 327,
      "cont": 328,
      "gen": 329,
      "fore": 330,
      "comm": 331,
      "prov": 332,
      "ary": 333,
      "eng": 334,
      "ser": 335,
      "first": 336,
      "cess": 337,
      "par": 338,
      "into": 339,
      "ren": 340,
      "your": 341,
      "know": 342,
      "were": 343,
      "ial": 344,
      "dr": 345,
      "ok": 346,
      "most": 347,
      "ever": 348,
      "him": 349,
      "des": 350,
      "own": 351,
      "year": 352,
      "ces": 353,
      "ide": 354,
      "cent": 355,
      "ck": 356,
      "ased": 357,
      "two": 358,
      "col": 359,
      "like": 360,
      "min": 361,
      "ign": 362,
      "car": 363,
      "play": 364,
      "inform": 365,
      "time": 366,
      "step": 367,
      "ak": 368,
      "nor": 369,
      "inter": 370,
      "ory": 371,
      "int": 372,
      "them": 373,
      "je": 374,
      "ople": 375,
      "ition": 376,
      "pol": 377,
      "ue": 378,
      "ance": 379,
      "people": 380,
      "tur": 381,
      "om": 382,
      "rel": 383,
      "fr": 384,
      "wr": 385,
      "old": 386,
      "information": 387,
      "vel": 388,
      "ting": 389,
      "produ": 390,
      "ild": 391,
      "fin": 392,
      "way": 393,
      "sy": 394,
      "may": 395,
      "trans": 396,
      "thing": 397,
      "text": 398,
      "pers": 399,
      "ere": 400,
      "bec": 401,
      "ang": 402,
      "ten": 403,
      "been": 404,
      "view": 405,
      "ident": 406,
      "work": 407,
      "try": 408,
      "bet": 409,
      "fl": 410,
      "ful": 411,
      "than": 412,
      "ise": 413,
      "does": 414,
      "lect": 415,
      "air": 416,
      "gre": 417,
      "ause": 418,
      "opt": 419,
      "while": 420,
      "incl": 421,
      "pt": 422,
      "ick": 423,
      "ific": 424,
      "state": 425,
      "lar": 426,
      "ations": 427,
      "hel": 428,
      "ative": 429,
      "vers": 430,
      "bu": 431,
      "mon": 432,
      "ict": 433,
      "ily": 434,
      "icle": 435,
      "app": 436,
      "sou": 437,
      "ating": 438,
      "et": 439,
      "where": 440,
      "fil": 441,
      "la": 442,
      "red": 443,
      "amer": 444,
      "io": 445,
      "cur": 446,
      "ited": 447,
      "high": 448,
      "said": 449,
      "pop": 450,
      "person": 451,
      "thr": 452,
      "under": 453,
      "city": 454,
      "row": 455,
      "loc": 456,
      "ca": 457,
      "use": 458,
      "article": 459,
      "used": 460,
      "bor": 461,
      "ds": 462,
      "mus": 463,
      "these": 464,
      "comp": 465,
      "only": 466,
      "les": 467,
      "ens": 468,
      "ject": 469,
      "med": 470,
      "world": 471,
      "pu": 472,
      "ious": 473,
      "reg": 474,
      "gest": 475,
      "dif": 476,
      "add": 477,
      "att": 478,
      "als": 479,
      "ning": 480,
      "back": 481,
      "sing": 482,
      "read": 483,
      "movie": 484,
      "many": 485,
      "ied": 486,
      "just": 487,
      "char": 488,
      "stud": 489,
      "could": 490,
      "review": 491,
      "ors": 492,
      "sel": 493,
      "tal": 494,
      "help": 495,
      "sub": 496,
      "hy": 497,
      "then": 498,
      "fri": 499,
      "sur": 500,
      "popul": 501,
      "ask": 502,
      "such": 503,
      "based": 504,
      "ents": 505,
      "through": 506,
      "because": 507,
      "inv": 508,
      "americ": 509,
      "ger": 510,
      "ction": 511,
      "bel": 512,
      "ra": 513,
      "need": 514,
      "ms": 515,
      "uring": 516,
      "cle": 517,
      "cap": 518,
      "call": 519,
      "don": 520,
      "friend": 521,
      "being": 522,
      "war": 523,
      "ational": 524,
      "fam": 525,
      "cer": 526,
      "west": 527,
      "ange": 528,
      "ced": 529,
      "cond": 530,
      "ef": 531,
      "son": 532,
      "publ": 533,
      "did": 534,
      "gy": 535,
      "sis": 536,
      "ath": 537,
      "fect": 538,
      "yes": 539,
      "ital": 540,
      "includ": 541,
      "lish": 542,
      "states": 543,
      "vis": 544,
      "sm": 545,
      "cons": 546,
      "ved": 547,
      "make": 548,
      "say": 549,
      "ry": 550,
      "well": 551,
      "ob": 552,
      "let": 553,
      "ose": 554,
      "water": 555,
      "num": 556,
      "down": 557,
      "lif": 558,
      "less": 559,
      "oc": 560,
      "find": 561,
      "gener": 562,
      "name": 563,
      "cri": 564,
      "ments": 565,
      "ween": 566,
      "known": 567,
      "mber": 568,
      "cial": 569,
      "dy": 570,
      "between": 571,
      "tit": 572,
      "both": 573,
      "ities": 574,
      "during": 575,
      "turn": 576,
      "come": 577,
      "arch": 578,
      "gan": 579,
      "lead": 580,
      "stand": 581,
      "rect": 582,
      "ins": 583,
      "stru": 584,
      "side": 585,
      "cus": 586,
      "years": 587,
      "tain": 588,
      "sto": 589,
      "cord": 590,
      "film": 591,
      "correct": 592,
      "want": 593,
      "sible": 594,
      "bre": 595,
      "mer": 596,
      "fa": 597,
      "sol": 598,
      "place": 599,
      "transl": 600,
      "men": 601,
      "peri": 602,
      "spec": 603,
      "alth": 604,
      "oup": 605,
      "ince": 606,
      "sup": 607,
      "fact": 608,
      "very": 609,
      "ouse": 610,
      "ving": 611,
      "context": 612,
      "long": 613,
      "see": 614,
      "process": 615,
      "ason": 616,
      "provid": 617,
      "cy": 618,
      "found": 619,
      "south": 620,
      "ship": 621,
      "mis": 622,
      "north": 623,
      "group": 624,
      "irect": 625,
      "ult": 626,
      "please": 627,
      "life": 628,
      "before": 629,
      "lan": 630,
      "writ": 631,
      "differ": 632,
      "country": 633,
      "music": 634,
      "ves": 635,
      "tell": 636,
      "united": 637,
      "sk": 638,
      "ted": 639,
      "however": 640,
      "set": 641,
      "led": 642,
      "eu": 643,
      "area": 644,
      "home": 645,
      "ss": 646,
      "uch": 647,
      "child": 648,
      "show": 649,
      "national": 650,
      "inst": 651,
      "tow": 652,
      "sim": 653,
      "self": 654,
      "good": 655,
      "public": 656,
      "ric": 657,
      "atch": 658,
      "ink": 659,
      "val": 660,
      "bro": 661,
      "house": 662,
      "chool": 663,
      "?\",": 664,
      "options": 665,
      "ze": 666,
      "each": 667,
      "school": 668,
      "ress": 669,
      "ices": 670,
      "product": 671,
      "made": 672,
      "sum": 673,
      "ball": 674,
      "second": 675,
      "tra": 676,
      "possible": 677,
      "again": 678,
      "aph": 679,
      "ys": 680,
      "ton": 681,
      "direct": 682,
      "kes": 683,
      "nam": 684,
      "di": 685,
      "plan": 686,
      "best": 687,
      "uni": 688,
      "even": 689,
      "should": 690,
      "english": 691,
      "itive": 692,
      "term": 693,
      "ude": 694,
      "sure": 695,
      "main": 696,
      "here": 697,
      "rele": 698,
      "every": 699,
      "sc": 700,
      "amp": 701,
      "tem": 702,
      "same": 703,
      "hu": 704,
      "head": 705,
      "import": 706,
      "clo": 707,
      "sul": 708,
      "family": 709,
      "mean": 710,
      "american": 711,
      "therefore": 712,
      "ner": 713,
      "ual": 714,
      "na": 715,
      "title": 716,
      "sign": 717,
      "ics": 718,
      "ences": 719,
      "bar": 720,
      "sen": 721,
      "sug": 722,
      "ings": 723,
      "ures": 724,
      "leg": 725,
      "rest": 726,
      "olo": 727,
      "pon": 728,
      "care": 729,
      "contin": 730,
      "ution": 731,
      "happ": 732,
      "tim": 733,
      "three": 734,
      "list": 735,
      "euro": 736,
      "stem": 737,
      "har": 738,
      "descri": 739,
      "gover": 740,
      "last": 741,
      "start": 742,
      "fun": 743,
      "pect": 744,
      "food": 745,
      "ards": 746,
      "ines": 747,
      ".\",": 748,
      "called": 749,
      "neg": 750,
      "ider": 751,
      "tre": 752,
      "bur": 753,
      "number": 754,
      "var": 755,
      "ga": 756,
      "take": 757,
      "ility": 758,
      "line": 759,
      "small": 760,
      "offic": 761,
      "tri": 762,
      "sit": 763,
      "mill": 764,
      "band": 765,
      "ants": 766,
      "ash": 767,
      "hand": 768,
      "bus": 769,
      "great": 770,
      "press": 771,
      "using": 772,
      "ives": 773,
      "vi": 774,
      "around": 775,
      "prem": 776,
      "system": 777,
      "que": 778,
      "including": 779,
      "different": 780,
      "positive": 781,
      "cour": 782,
      "ina": 783,
      "mor": 784,
      "velop": 785,
      "nat": 786,
      "light": 787,
      "team": 788,
      "bir": 789,
      "develop": 790,
      "plot": 791,
      "mal": 792,
      "ters": 793,
      "che": 794,
      "langu": 795,
      "hist": 796,
      "ify": 797,
      "lit": 798,
      "class": 799,
      "ven": 800,
      "elect": 801,
      "thesis": 802,
      "alb": 803,
      "den": 804,
      "present": 805,
      "ically": 806,
      "dec": 807,
      "comple": 808,
      "europe": 809,
      "mb": 810,
      "hypo": 811,
      "task": 812,
      "run": 813,
      "ub": 814,
      "serv": 815,
      "hn": 816,
      "ank": 817,
      "important": 818,
      "pow": 819,
      "body": 820,
      "incre": 821,
      "since": 822,
      "feel": 823,
      "top": 824,
      "appe": 825,
      "pass": 826,
      "suggest": 827,
      "mil": 828,
      "polit": 829,
      "search": 830,
      "ular": 831,
      "os": 832,
      "much": 833,
      "sever": 834,
      "wal": 835,
      "island": 836,
      "ional": 837,
      "tail": 838,
      "relation": 839,
      "ists": 840,
      "tle": 841,
      "hypothesis": 842,
      "organ": 843,
      "ii": 844,
      "provide": 845,
      "arr": 846,
      "ail": 847,
      "govern": 848,
      "later": 849,
      "story": 850,
      "consider": 851,
      "cal": 852,
      "next": 853,
      "ken": 854,
      "ases": 855,
      "orig": 856,
      "negative": 857,
      "album": 858,
      "four": 859,
      "key": 860,
      "though": 861,
      "respon": 862,
      "jor": 863,
      "build": 864,
      "expl": 865,
      "vir": 866,
      "ort": 867,
      "ket": 868,
      "blo": 869,
      "charact": 870,
      "book": 871,
      "ages": 872,
      "john": 873,
      "aren": 874,
      "bed": 875,
      "mi": 876,
      "experi": 877,
      "pri": 878,
      "game": 879,
      "suc": 880,
      "hol": 881,
      "wa": 882,
      "resul": 883,
      "ately": 884,
      "gl": 885,
      "law": 886,
      "mat": 887,
      "dep": 888,
      "premise": 889,
      "ft": 890,
      "oper": 891,
      "room": 892,
      "youn": 893,
      "ars": 894,
      "real": 895,
      "ann": 896,
      "wee": 897,
      "origin": 898,
      "anim": 899,
      "cover": 900,
      "company": 901,
      "mic": 902,
      "unt": 903,
      "face": 904,
      "ield": 905,
      "tract": 906,
      "assa": 907,
      "right": 908,
      "met": 909,
      "fic": 910,
      "ref": 911,
      "ived": 912,
      "words": 913,
      "effect": 914,
      "another": 915,
      "kill": 916,
      "often": 917,
      "town": 918,
      "aster": 919,
      "equ": 920,
      "point": 921,
      "provided": 922,
      "mention": 923,
      "times": 924,
      "specific": 925,
      "prof": 926,
      "concl": 927,
      "true": 928,
      "near": 929,
      "ized": 930,
      "east": 931,
      "language": 932,
      "ness": 933,
      "az": 934,
      "write": 935,
      "mot": 936,
      "struct": 937,
      "ames": 938,
      "test": 939,
      "song": 940,
      "largest": 941,
      "ris": 942,
      "brit": 943,
      "exam": 944,
      "population": 945,
      "ways": 946,
      "abo": 947,
      "far": 948,
      "uc": 949,
      "cept": 950,
      "case": 951,
      "ste": 952,
      "whe": 953,
      "gram": 954,
      "ural": 955,
      "move": 956,
      "sw": 957,
      "record": 958,
      "ump": 959,
      "requ": 960,
      "thor": 961,
      "sea": 962,
      "augh": 963,
      "fur": 964,
      "iment": 965,
      "proble": 966,
      "children": 967,
      "ib": 968,
      "ared": 969,
      "grow": 970,
      "night": 971,
      "sun": 972,
      "president": 973,
      "word": 974,
      "making": 975,
      "sco": 976,
      "too": 977,
      "clear": 978,
      "partic": 979,
      "cut": 980,
      "pur": 981,
      "born": 982,
      "government": 983,
      "river": 984,
      "understand": 985,
      "return": 986,
      "iving": 987,
      "power": 988,
      "del": 989,
      "field": 990,
      "ually": 991,
      "lear": 992,
      "still": 993,
      "located": 994,
      "several": 995,
      "ele": 996,
      "gir": 997,
      "ired": 998,
      "ivid": 999,
      "pat": 1000,
      "beg": 1001,
      "ore": 1002,
      "those": 1003,
      "belie": 1004,
      "ah": 1005,
      "commun": 1006,
      "univers": 1007,
      "look": 1008,
      "ned": 1009,
      "ener": 1010,
      "big": 1011,
      "net": 1012,
      "reason": 1013,
      "father": 1014,
      "tribut": 1015,
      "bal": 1016,
      "million": 1017,
      "option": 1018,
      "success": 1019,
      "vent": 1020,
      "imp": 1021,
      "ature": 1022,
      "agr": 1023,
      "rus": 1024,
      "oney": 1025,
      "ug": 1026,
      "open": 1027,
      "addition": 1028,
      "within": 1029,
      "iness": 1030,
      "major": 1031,
      "sal": 1032,
      "above": 1033,
      "pot": 1034,
      "sci": 1035,
      "ier": 1036,
      "ially": 1037,
      "against": 1038,
      "health": 1039,
      "order": 1040,
      "appro": 1041,
      "girl": 1042,
      "pa": 1043,
      "large": 1044,
      "comes": 1045,
      "ground": 1046,
      "allow": 1047,
      "subject": 1048,
      "object": 1049,
      "left": 1050,
      "ues": 1051,
      "think": 1052,
      "ides": 1053,
      "without": 1054,
      "mid": 1055,
      "love": 1056,
      "cell": 1057,
      "ley": 1058,
      "thern": 1059,
      "might": 1060,
      "minis": 1061,
      "death": 1062,
      "young": 1063,
      "foot": 1064,
      "ross": 1065,
      "bi": 1066,
      "event": 1067,
      "member": 1068,
      "mother": 1069,
      "yor": 1070,
      "choose": 1071,
      "going": 1072,
      "vol": 1073,
      "away": 1074,
      "invol": 1075,
      "detail": 1076,
      "capital": 1077,
      "dan": 1078,
      "ney": 1079,
      "rock": 1080,
      "gether": 1081,
      "together": 1082,
      "human": 1083,
      "hal": 1084,
      "ism": 1085,
      "common": 1086,
      "support": 1087,
      "keep": 1088,
      "ade": 1089,
      "statement": 1090,
      "won": 1091,
      "cul": 1092,
      "means": 1093,
      "uses": 1094,
      "ones": 1095,
      "aim": 1096,
      "assage": 1097,
      "curren": 1098,
      "likely": 1099,
      "ential": 1100,
      "ury": 1101,
      "paragr": 1102,
      "paragraph": 1103,
      "tech": 1104,
      "ats": 1105,
      "whether": 1106,
      "tw": 1107,
      "ye": 1108,
      "rece": 1109,
      "mary": 1110,
      "ights": 1111,
      "ben": 1112,
      "contain": 1113,
      "woman": 1114,
      "ient": 1115,
      "until": 1116,
      "ern": 1117,
      "passage": 1118,
      "contro": 1119,
      "translate": 1120,
      "author": 1121,
      "situ": 1122,
      "sat": 1123,
      "tom": 1124,
      "defin": 1125,
      "york": 1126,
      "flu": 1127,
      "fort": 1128,
      "accord": 1129,
      "ata": 1130,
      "ending": 1131,
      "ons": 1132,
      "sion": 1133,
      "ability": 1134,
      "action": 1135,
      "money": 1136,
      "jan": 1137,
      "job": 1138,
      "teach": 1139,
      "ize": 1140,
      "named": 1141,
      "mr": 1142,
      "republic": 1143,
      "little": 1144,
      "something": 1145,
      "friends": 1146,
      "tries": 1147,
      "invest": 1148,
      "ator": 1149,
      "change": 1150,
      "chang": 1151,
      "hold": 1152,
      "lot": 1153,
      "cu": 1154,
      "played": 1155,
      "refer": 1156,
      "oce": 1157,
      "according": 1158,
      "short": 1159,
      "former": 1160,
      "energy": 1161,
      "issu": 1162,
      "why": 1163,
      "earth": 1164,
      "interest": 1165,
      "pen": 1166,
      "police": 1167,
      "enough": 1168,
      "few": 1169,
      "tele": 1170,
      "ral": 1171,
      "termine": 1172,
      "lu": 1173,
      "along": 1174,
      "determine": 1175,
      "got": 1176,
      "hard": 1177,
      "released": 1178,
      "research": 1179,
      "posed": 1180,
      "must": 1181,
      "output": 1182,
      "fall": 1183,
      "party": 1184,
      "soci": 1185,
      "profess": 1186,
      "typ": 1187,
      "lon": 1188,
      "bill": 1189,
      "due": 1190,
      "loo": 1191,
      "ham": 1192,
      "early": 1193,
      "ality": 1194,
      "character": 1195,
      "bon": 1196,
      "win": 1197,
      "thir": 1198,
      "overall": 1199,
      "terr": 1200,
      "related": 1201,
      "blood": 1202,
      "university": 1203,
      "level": 1204,
      "ended": 1205,
      "dist": 1206,
      "mul": 1207,
      "relationship": 1208,
      "paren": 1209,
      "wood": 1210,
      "having": 1211,
      "design": 1212,
      "things": 1213,
      "region": 1214,
      "bas": 1215,
      "become": 1216,
      "chr": 1217,
      "ports": 1218,
      "ateg": 1219,
      "fac": 1220,
      "ave": 1221,
      "business": 1222,
      "black": 1223,
      "ban": 1224,
      "others": 1225,
      "sho": 1226,
      "une": 1227,
      "series": 1228,
      "bab": 1229,
      "gn": 1230,
      "enter": 1231,
      "plac": 1232,
      "trad": 1233,
      "ster": 1234,
      "pris": 1235,
      "signific": 1236,
      "month": 1237,
      "pho": 1238,
      "week": 1239,
      "ba": 1240,
      "never": 1241,
      "seem": 1242,
      "ny": 1243,
      "ished": 1244,
      "wind": 1245,
      "various": 1246,
      "free": 1247,
      "lim": 1248,
      "prote": 1249,
      "ago": 1250,
      "rench": 1251,
      "conne": 1252,
      "better": 1253,
      "natural": 1254,
      "watch": 1255,
      "county": 1256,
      "techn": 1257,
      "rad": 1258,
      "individ": 1259,
      "aly": 1260,
      "once": 1261,
      "activ": 1262,
      "type": 1263,
      "include": 1264,
      "uk": 1265,
      "boy": 1266,
      "uary": 1267,
      "ps": 1268,
      "ocean": 1269,
      "ision": 1270,
      "ories": 1271,
      "white": 1272,
      "give": 1273,
      "vo": 1274,
      "ns": 1275,
      "ling": 1276,
      "meaning": 1277,
      "experience": 1278,
      "ified": 1279,
      "current": 1280,
      "van": 1281,
      "dom": 1282,
      "crit": 1283,
      "ped": 1284,
      "ese": 1285,
      "ream": 1286,
      "educ": 1287,
      "ward": 1288,
      "comb": 1289,
      "din": 1290,
      "ief": 1291,
      "aring": 1292,
      "western": 1293,
      "gs": 1294,
      "impact": 1295,
      "hot": 1296,
      "ends": 1297,
      "history": 1298,
      "hor": 1299,
      "associ": 1300,
      "aut": 1301,
      "live": 1302,
      "vision": 1303,
      "select": 1304,
      "proper": 1305,
      "pal": 1306,
      "says": 1307,
      "students": 1308,
      "position": 1309,
      "birth": 1310,
      "french": 1311,
      "mark": 1312,
      "ama": 1313,
      "olog": 1314,
      "further": 1315,
      "sed": 1316,
      "became": 1317,
      "sound": 1318,
      "ology": 1319,
      "emp": 1320,
      "took": 1321,
      "vict": 1322,
      "choices": 1323,
      "russi": 1324,
      "train": 1325,
      "non": 1326,
      "sch": 1327,
      "camp": 1328,
      "someone": 1329,
      "mentioned": 1330,
      "usu": 1331,
      "star": 1332,
      "san": 1333,
      "building": 1334,
      "british": 1335,
      "questions": 1336,
      "lin": 1337,
      "local": 1338,
      "ju": 1339,
      "popular": 1340,
      "pain": 1341,
      "div": 1342,
      "chan": 1343,
      "vide": 1344,
      "five": 1345,
      "multi": 1346,
      "post": 1347,
      "original": 1348,
      "break": 1349,
      "season": 1350,
      "special": 1351,
      "joy": 1352,
      "usion": 1353,
      "date": 1354,
      "data": 1355,
      "office": 1356,
      "program": 1357,
      "hun": 1358,
      "always": 1359,
      "problem": 1360,
      "die": 1361,
      "vill": 1362,
      "plant": 1363,
      "phr": 1364,
      "written": 1365,
      "role": 1366,
      "ply": 1367,
      "da": 1368,
      "days": 1369,
      "hour": 1370,
      "hind": 1371,
      "cing": 1372,
      "claim": 1373,
      "moun": 1374,
      "gree": 1375,
      "example": 1376,
      "sense": 1377,
      "significant": 1378,
      "identify": 1379,
      "strong": 1380,
      "rich": 1381,
      "cast": 1382,
      "ids": 1383,
      "sentiment": 1384,
      "social": 1385,
      "football": 1386,
      "ker": 1387,
      "leag": 1388,
      "although": 1389,
      "econ": 1390,
      "full": 1391,
      "ru": 1392,
      "ming": 1393,
      "dam": 1394,
      "atic": 1395,
      "christ": 1396,
      "told": 1397,
      "sentences": 1398,
      "mbers": 1399,
      "indic": 1400,
      "ran": 1401,
      "afric": 1402,
      "fron": 1403,
      "result": 1404,
      "entity": 1405,
      "china": 1406,
      "final": 1407,
      "ought": 1408,
      "itary": 1409,
      "mee": 1410,
      "cup": 1411,
      "roy": 1412,
      "round": 1413,
      "reach": 1414,
      "aves": 1415,
      "perform": 1416,
      "jap": 1417,
      "ute": 1418,
      "period": 1419,
      "international": 1420,
      "eas": 1421,
      "fed": 1422,
      "went": 1423,
      "force": 1424,
      "ium": 1425,
      "attack": 1426,
      "mit": 1427,
      "study": 1428,
      "dro": 1429,
      "pay": 1430,
      "working": 1431,
      "really": 1432,
      "ls": 1433,
      "ival": 1434,
      "members": 1435,
      "japan": 1436,
      "wide": 1437,
      "analy": 1438,
      "century": 1439,
      "ization": 1440,
      "third": 1441,
      "dev": 1442,
      "concer": 1443,
      "club": 1444,
      "ith": 1445,
      "pick": 1446,
      "express": 1447,
      "news": 1448,
      "london": 1449,
      "single": 1450,
      "lower": 1451,
      "categ": 1452,
      "cas": 1453,
      "among": 1454,
      "coming": 1455,
      "itions": 1456,
      "bes": 1457,
      "complete": 1458,
      "general": 1459,
      "england": 1460,
      "works": 1461,
      "iety": 1462,
      "prim": 1463,
      "lat": 1464,
      "sam": 1465,
      "buy": 1466,
      "aged": 1467,
      "gar": 1468,
      "total": 1469,
      "aur": 1470,
      "bs": 1471,
      "report": 1472,
      "six": 1473,
      "came": 1474,
      "travel": 1475,
      "pan": 1476,
      "cannot": 1477,
      "makes": 1478,
      "generate": 1479,
      "def": 1480,
      "austr": 1481,
      "ustr": 1482,
      "envir": 1483,
      "ged": 1484,
      "ada": 1485,
      "viewer": 1486,
      "official": 1487,
      "boo": 1488,
      "environ": 1489,
      "compe": 1490,
      "influ": 1491,
      "taking": 1492,
      "ilar": 1493,
      "sty": 1494,
      "ders": 1495,
      "ler": 1496,
      "austral": 1497,
      "political": 1498,
      "road": 1499,
      "pose": 1500,
      "quar": 1501,
      "heart": 1502,
      "women": 1503,
      "ik": 1504,
      "half": 1505,
      "super": 1506,
      "avail": 1507,
      "bit": 1508,
      "phys": 1509,
      "phil": 1510,
      "photo": 1511,
      "suggests": 1512,
      "tour": 1513,
      "sex": 1514,
      "mur": 1515,
      "ox": 1516,
      "america": 1517,
      "const": 1518,
      "expect": 1519,
      "ready": 1520,
      "ark": 1521,
      "ale": 1522,
      "wife": 1523,
      "playing": 1524,
      "kind": 1525,
      "green": 1526,
      "affect": 1527,
      "central": 1528,
      "acy": 1529,
      "stop": 1530,
      "vious": 1531,
      "parents": 1532,
      "pie": 1533,
      "count": 1534,
      "dav": 1535,
      "countries": 1536,
      "comput": 1537,
      "ron": 1538,
      "rain": 1539,
      "career": 1540,
      "sequ": 1541,
      "plo": 1542,
      "video": 1543,
      "board": 1544,
      "park": 1545,
      "depend": 1546,
      "similar": 1547,
      "brother": 1548,
      "ford": 1549,
      "european": 1550,
      "space": 1551,
      "service": 1552,
      "television": 1553,
      "jack": 1554,
      "iting": 1555,
      "games": 1556,
      "tru": 1557,
      "forman": 1558,
      "glo": 1559,
      "fully": 1560,
      "estab": 1561,
      "ians": 1562,
      "mp": 1563,
      "scen": 1564,
      "performan": 1565,
      "ured": 1566,
      "ff": 1567,
      "bad": 1568,
      "didn": 1569,
      "past": 1570,
      "restaur": 1571,
      "bio": 1572,
      "cost": 1573,
      "itch": 1574,
      "situation": 1575,
      "graph": 1576,
      "fire": 1577,
      "safe": 1578,
      "hab": 1579,
      "certain": 1580,
      "location": 1581,
      "stay": 1582,
      "begin": 1583,
      "tic": 1584,
      "happen": 1585,
      "asked": 1586,
      "late": 1587,
      "bul": 1588,
      "stree": 1589,
      "league": 1590,
      "border": 1591,
      "establish": 1592,
      "living": 1593,
      "mag": 1594,
      "histor": 1595,
      "tt": 1596,
      "considered": 1597,
      "moder": 1598,
      "takes": 1599,
      "pract": 1600,
      "ried": 1601,
      "ctor": 1602,
      "flo": 1603,
      "rob": 1604,
      "temper": 1605,
      "gress": 1606,
      "environment": 1607,
      "enjoy": 1608,
      "german": 1609,
      "sour": 1610,
      "inste": 1611,
      "ses": 1612,
      "particular": 1613,
      "looking": 1614,
      "separ": 1615,
      "secre": 1616,
      "recent": 1617,
      "pun": 1618,
      "custo": 1619,
      "offer": 1620,
      "exp": 1621,
      "weet": 1622,
      "union": 1623,
      "feder": 1624,
      "share": 1625,
      "trump": 1626,
      "close": 1627,
      "collect": 1628,
      "thought": 1629,
      "today": 1630,
      "mind": 1631,
      "ots": 1632,
      "lor": 1633,
      "aper": 1634,
      "center": 1635,
      "himself": 1636,
      "init": 1637,
      "antic": 1638,
      "acc": 1639,
      "attem": 1640,
      "hum": 1641,
      "dest": 1642,
      "stri": 1643,
      "seen": 1644,
      "phone": 1645,
      "mater": 1646,
      "usually": 1647,
      "span": 1648,
      "atures": 1649,
      "fran": 1650,
      "adv": 1651,
      "amoun": 1652,
      "doesn": 1653,
      "tro": 1654,
      "ints": 1655,
      "species": 1656,
      "reco": 1657,
      "recomm": 1658,
      "court": 1659,
      "personal": 1660,
      "military": 1661,
      "necess": 1662,
      "ka": 1663,
      "aff": 1664,
      "hing": 1665,
      "inc": 1666,
      "user": 1667,
      "choice": 1668,
      "bert": 1669,
      "sl": 1670,
      "contribut": 1671,
      "available": 1672,
      "mountain": 1673,
      "nal": 1674,
      "fig": 1675,
      "aughter": 1676,
      "connect": 1677,
      "represent": 1678,
      "across": 1679,
      "tells": 1680,
      "ency": 1681,
      "goes": 1682,
      "han": 1683,
      "create": 1684,
      "ined": 1685,
      "geor": 1686,
      "og": 1687,
      "cause": 1688,
      "began": 1689,
      "instit": 1690,
      "ja": 1691,
      "front": 1692,
      "vin": 1693,
      "anger": 1694,
      "summary": 1695,
      "urch": 1696,
      "hen": 1697,
      "mc": 1698,
      "ding": 1699,
      "spo": 1700,
      "indian": 1701,
      "adminis": 1702,
      "ently": 1703,
      "instead": 1704,
      "reviewer": 1705,
      "box": 1706,
      "eat": 1707,
      "coast": 1708,
      "clim": 1709,
      "sof": 1710,
      "outside": 1711,
      "artist": 1712,
      "appl": 1713,
      "shop": 1714,
      "ither": 1715,
      "lands": 1716,
      "jour": 1717,
      "kingdom": 1718,
      "held": 1719,
      "lab": 1720,
      "below": 1721,
      "desp": 1722,
      "chines": 1723,
      "mess": 1724,
      "dog": 1725,
      "dle": 1726,
      "soc": 1727,
      "ised": 1728,
      "writer": 1729,
      "details": 1730,
      "diffic": 1731,
      "discus": 1732,
      "ption": 1733,
      "actions": 1734,
      "answers": 1735,
      "goal": 1736,
      "imately": 1737,
      "distr": 1738,
      "base": 1739,
      "occur": 1740,
      "rb": 1741,
      "grand": 1742,
      "hip": 1743,
      "church": 1744,
      "northern": 1745,
      "dead": 1746,
      "animals": 1747,
      "ively": 1748,
      "steps": 1749,
      "transport": 1750,
      "potential": 1751,
      "trying": 1752,
      "maint": 1753,
      "conf": 1754,
      "gas": 1755,
      "gun": 1756,
      "redu": 1757,
      "roman": 1758,
      "translation": 1759,
      "ded": 1760,
      "previous": 1761,
      "control": 1762,
      "investig": 1763,
      "emot": 1764,
      "restaurant": 1765,
      "mentions": 1766,
      "hit": 1767,
      "material": 1768,
      "includes": 1769,
      "territ": 1770,
      "idence": 1771,
      "development": 1772,
      "solve": 1773,
      "yard": 1774,
      "continu": 1775,
      "nes": 1776,
      "draw": 1777,
      "lege": 1778,
      "march": 1779,
      "asia": 1780,
      "ires": 1781,
      "ges": 1782,
      "wall": 1783,
      "flow": 1784,
      "explain": 1785,
      "econom": 1786,
      "demo": 1787,
      "behind": 1788,
      "akes": 1789,
      "ention": 1790,
      "remain": 1791,
      "scient": 1792,
      "nia": 1793,
      "deal": 1794,
      "teen": 1795,
      "sil": 1796,
      "range": 1797,
      "astern": 1798,
      "college": 1799,
      "iction": 1800,
      "fish": 1801,
      "populous": 1802,
      "rive": 1803,
      "provides": 1804,
      "taken": 1805,
      "fut": 1806,
      "despite": 1807,
      "stat": 1808,
      "increase": 1809,
      "scre": 1810,
      "sle": 1811,
      "dou": 1812,
      "jud": 1813,
      "cir": 1814,
      "sell": 1815,
      "ony": 1816,
      "wanted": 1817,
      "ping": 1818,
      "quick": 1819,
      "dig": 1820,
      "cou": 1821,
      "village": 1822,
      "clean": 1823,
      "visit": 1824,
      "fav": 1825,
      "note": 1826,
      "areas": 1827,
      "writing": 1828,
      "animal": 1829,
      "plants": 1830,
      "cat": 1831,
      "appear": 1832,
      "getting": 1833,
      "cult": 1834,
      "india": 1835,
      "teacher": 1836,
      "sep": 1837,
      "director": 1838,
      "gust": 1839,
      "soon": 1840,
      "conclusion": 1841,
      "sold": 1842,
      "mun": 1843,
      "focus": 1844,
      "project": 1845,
      "southern": 1846,
      "emplo": 1847,
      "pict": 1848,
      "production": 1849,
      "ane": 1850,
      "beaut": 1851,
      "received": 1852,
      "station": 1853,
      "rul": 1854,
      "termin": 1855,
      "hon": 1856,
      "lives": 1857,
      "administr": 1858,
      "broad": 1859,
      "gg": 1860,
      "conclude": 1861,
      "finally": 1862,
      "sometimes": 1863,
      "described": 1864,
      "iam": 1865,
      "learn": 1866,
      "nel": 1867,
      "accur": 1868,
      "intro": 1869,
      "nu": 1870,
      "mass": 1871,
      "higher": 1872,
      "mand": 1873,
      "equation": 1874,
      "terms": 1875,
      "arily": 1876,
      "fight": 1877,
      "sor": 1878,
      "cru": 1879,
      "daughter": 1880,
      "chem": 1881,
      "happy": 1882,
      "ination": 1883,
      "modern": 1884,
      "street": 1885,
      "least": 1886,
      "match": 1887,
      "thin": 1888,
      "grad": 1889,
      "ills": 1890,
      "amount": 1891,
      "recogn": 1892,
      "rid": 1893,
      "lad": 1894,
      "asing": 1895,
      "touch": 1896,
      "ix": 1897,
      "ica": 1898,
      "gold": 1899,
      "ided": 1900,
      "roll": 1901,
      "utes": 1902,
      "track": 1903,
      "inside": 1904,
      "parts": 1905,
      "events": 1906,
      "ret": 1907,
      "ana": 1908,
      "rown": 1909,
      "label": 1910,
      "chall": 1911,
      "becomes": 1912,
      "leave": 1913,
      "ication": 1914,
      "commit": 1915,
      "ense": 1916,
      "maintain": 1917,
      "directly": 1918,
      "mes": 1919,
      "spanish": 1920,
      "capt": 1921,
      "media": 1922,
      "pts": 1923,
      "treat": 1924,
      "france": 1925,
      "towards": 1926,
      "unch": 1927,
      "difficult": 1928,
      "formed": 1929,
      "suf": 1930,
      "exper": 1931,
      "thre": 1932,
      "customer": 1933,
      "professional": 1934,
      "xic": 1935,
      "za": 1936,
      "sib": 1937,
      "compl": 1938,
      "protect": 1939,
      "satis": 1940,
      "fast": 1941,
      "middle": 1942,
      "surface": 1943,
      "mail": 1944,
      "depart": 1945,
      "hours": 1946,
      "david": 1947,
      "started": 1948,
      "heav": 1949,
      "introdu": 1950,
      "suit": 1951,
      "months": 1952,
      "tradition": 1953,
      "store": 1954,
      "ino": 1955,
      "secur": 1956,
      "books": 1957,
      "aking": 1958,
      "hosp": 1959,
      "idea": 1960,
      "tv": 1961,
      "door": 1962,
      "lt": 1963,
      "kore": 1964,
      "spr": 1965,
      "civ": 1966,
      "ester": 1967,
      "ather": 1968,
      "doing": 1969,
      "moved": 1970,
      "squ": 1971,
      "rating": 1972,
      "worth": 1973,
      "player": 1974,
      "metro": 1975,
      "future": 1976,
      "killed": 1977,
      "ledge": 1978,
      "cali": 1979,
      "talk": 1980,
      "chinese": 1981,
      "respect": 1982,
      "points": 1983,
      "aft": 1984,
      "performance": 1985,
      "recor": 1986,
      "mas": 1987,
      "paul": 1988,
      "ring": 1989,
      "lines": 1990,
      "speak": 1991,
      "islands": 1992,
      "fail": 1993,
      "legal": 1994,
      "forms": 1995,
      "bers": 1996,
      "attle": 1997,
      "saw": 1998,
      "throughout": 1999,
      "changes": 2000,
      "solution": 2001,
      "ky": 2002,
      "computer": 2003,
      "additionally": 2004,
      "produced": 2005,
      "fill": 2006,
      "dece": 2007,
      "lou": 2008,
      "prove": 2009,
      "needs": 2010,
      "science": 2011,
      "shows": 2012,
      "brid": 2013,
      "male": 2014,
      "elements": 2015,
      "atl": 2016,
      "tor": 2017,
      "leading": 2018,
      "ible": 2019,
      "viol": 2020,
      "died": 2021,
      "tweet": 2022,
      "lost": 2023,
      "bc": 2024,
      "itar": 2025,
      "uel": 2026,
      "los": 2027,
      "ext": 2028,
      "bot": 2029,
      "democr": 2030,
      "priv": 2031,
      "ager": 2032,
      "ilt": 2033,
      "fre": 2034,
      "upon": 2035,
      "independ": 2036,
      "ensive": 2037,
      "records": 2038,
      "ush": 2039,
      "william": 2040,
      "ake": 2041,
      "verse": 2042,
      "district": 2043,
      "ko": 2044,
      "appoint": 2045,
      "nation": 2046,
      "officially": 2047,
      "created": 2048,
      "cape": 2049,
      "market": 2050,
      "color": 2051,
      "achie": 2052,
      "check": 2053,
      "spect": 2054,
      "cro": 2055,
      "cks": 2056,
      "exe": 2057,
      "rather": 2058,
      "surv": 2059,
      "student": 2060,
      "cially": 2061,
      "mad": 2062,
      "characters": 2063,
      "pul": 2064,
      "community": 2065,
      "bring": 2066,
      "walk": 2067,
      "individual": 2068,
      "civil": 2069,
      "ples": 2070,
      "nove": 2071,
      "sand": 2072,
      "june": 2073,
      "ril": 2074,
      "argu": 2075,
      "log": 2076,
      "covered": 2077,
      "native": 2078,
      "califor": 2079,
      "germany": 2080,
      "sports": 2081,
      "lie": 2082,
      "finan": 2083,
      "ax": 2084,
      "typically": 2085,
      "lying": 2086,
      "rate": 2087,
      "tax": 2088,
      "gets": 2089,
      "james": 2090,
      "wel": 2091,
      "host": 2092,
      "whose": 2093,
      "nav": 2094,
      "gi": 2095,
      "involved": 2096,
      "mart": 2097,
      "oxy": 2098,
      "enced": 2099,
      "tural": 2100,
      "bow": 2101,
      "table": 2102,
      "pressure": 2103,
      "reve": 2104,
      "theast": 2105,
      "len": 2106,
      "january": 2107,
      "ification": 2108,
      "already": 2109,
      "either": 2110,
      "sess": 2111,
      "bud": 2112,
      "tember": 2113,
      "hus": 2114,
      "selves": 2115,
      "august": 2116,
      "award": 2117,
      "almost": 2118,
      "oid": 2119,
      "corpor": 2120,
      "hael": 2121,
      "convers": 2122,
      "grap": 2123,
      "response": 2124,
      "py": 2125,
      "california": 2126,
      "blue": 2127,
      "audi": 2128,
      "iday": 2129,
      "seems": 2130,
      "inte": 2131,
      "quality": 2132,
      "hi": 2133,
      "tex": 2134,
      "refers": 2135,
      "stor": 2136,
      "agree": 2137,
      "phrase": 2138,
      "aging": 2139,
      "wed": 2140,
      "alter": 2141,
      "relig": 2142,
      "champ": 2143,
      "spir": 2144,
      "ament": 2145,
      "hop": 2146,
      "izes": 2147,
      "seven": 2148,
      "window": 2149,
      "september": 2150,
      "continue": 2151,
      "physical": 2152,
      "smo": 2153,
      "leader": 2154,
      "ida": 2155,
      "needed": 2156,
      "value": 2157,
      "russian": 2158,
      "surround": 2159,
      "jer": 2160,
      "november": 2161,
      "oxygen": 2162,
      "compan": 2163,
      "lay": 2164,
      "security": 2165,
      "regard": 2166,
      "neigh": 2167,
      "eventually": 2168,
      "associated": 2169,
      "tober": 2170,
      "percent": 2171,
      "industr": 2172,
      "michael": 2173,
      "cil": 2174,
      "asks": 2175,
      "july": 2176,
      "october": 2177,
      "answerable": 2178,
      "content": 2179,
      "meas": 2180,
      "size": 2181,
      "command": 2182,
      "polic": 2183,
      "eth": 2184,
      "washing": 2185,
      "instruct": 2186,
      "industry": 2187,
      "access": 2188,
      "fit": 2189,
      "decision": 2190,
      "vey": 2191,
      "vot": 2192,
      "hospital": 2193,
      "morning": 2194,
      "reading": 2195,
      "istan": 2196,
      "alex": 2197,
      "style": 2198,
      "dio": 2199,
      "federal": 2200,
      "ensu": 2201,
      "nic": 2202,
      "education": 2203,
      "served": 2204,
      "australia": 2205,
      "radio": 2206,
      "recommend": 2207,
      "africa": 2208,
      "apart": 2209,
      "uals": 2210,
      "covers": 2211,
      "april": 2212,
      "issues": 2213,
      "believe": 2214,
      "impl": 2215,
      "placed": 2216,
      "va": 2217,
      "done": 2218,
      "entire": 2219,
      "card": 2220,
      "exist": 2221,
      "prin": 2222,
      "sleep": 2223,
      "knowledge": 2224,
      "prevent": 2225,
      "developed": 2226,
      "meet": 2227,
      "services": 2228,
      "imin": 2229,
      "quarter": 2230,
      "greater": 2231,
      "hood": 2232,
      "everyone": 2233,
      "gain": 2234,
      "canada": 2235,
      "famil": 2236,
      "wants": 2237,
      "problems": 2238,
      "cells": 2239,
      "drug": 2240,
      "translated": 2241,
      "isl": 2242,
      "pac": 2243,
      "category": 2244,
      "begins": 2245,
      "release": 2246,
      "lee": 2247,
      "dise": 2248,
      "earli": 2249,
      "frank": 2250,
      "extract": 2251,
      "definition": 2252,
      "minutes": 2253,
      "background": 2254,
      "japanese": 2255,
      "pack": 2256,
      "successful": 2257,
      "mexic": 2258,
      "carbon": 2259,
      "continent": 2260,
      "bank": 2261,
      "decl": 2262,
      "anything": 2263,
      "assist": 2264,
      "lake": 2265,
      "aver": 2266,
      "ators": 2267,
      "decre": 2268,
      "liver": 2269,
      "contains": 2270,
      "course": 2271,
      "exer": 2272,
      "?\"": 2273,
      "rup": 2274,
      "mach": 2275,
      "heat": 2276,
      "plays": 2277,
      "pair": 2278,
      "atter": 2279,
      "asking": 2280,
      "online": 2281,
      "syn": 2282,
      "mix": 2283,
      "army": 2284,
      "necessary": 2285,
      "meth": 2286,
      "cis": 2287,
      "ances": 2288,
      "hur": 2289,
      "prison": 2290,
      "meeting": 2291,
      "george": 2292,
      "economic": 2293,
      "ensure": 2294,
      "hair": 2295,
      "favor": 2296,
      "forces": 2297,
      "produce": 2298,
      "accept": 2299,
      "sar": 2300,
      "engine": 2301,
      "cise": 2302,
      "december": 2303,
      "yet": 2304,
      "growth": 2305,
      "ille": 2306,
      "espe": 2307,
      "weight": 2308,
      "wro": 2309,
      "temperature": 2310,
      "finds": 2311,
      "urban": 2312,
      "condu": 2313,
      "mac": 2314,
      "murder": 2315,
      "deep": 2316,
      "issue": 2317,
      "leaves": 2318,
      "complex": 2319,
      "studio": 2320,
      "usage": 2321,
      "eastern": 2322,
      "smaller": 2323,
      "max": 2324,
      "belong": 2325,
      "running": 2326,
      "aving": 2327,
      "remember": 2328,
      "acade": 2329,
      "ali": 2330,
      "rac": 2331,
      "ilities": 2332,
      "pret": 2333,
      "themselves": 2334,
      "bing": 2335,
      "moving": 2336,
      "approach": 2337,
      "deci": 2338,
      "aspect": 2339,
      "inj": 2340,
      "understanding": 2341,
      "mission": 2342,
      "hib": 2343,
      "determin": 2344,
      "lack": 2345,
      "hall": 2346,
      "quickly": 2347,
      "wrote": 2348,
      "italian": 2349,
      "added": 2350,
      "cand": 2351,
      "thus": 2352,
      "medi": 2353,
      "included": 2354,
      "promot": 2355,
      "features": 2356,
      "summer": 2357,
      "arab": 2358,
      "camer": 2359,
      "entertain": 2360,
      "dol": 2361,
      "published": 2362,
      "longer": 2363,
      "especially": 2364,
      "paris": 2365,
      "habit": 2366,
      "songs": 2367,
      "dream": 2368,
      "describes": 2369,
      "musical": 2370,
      "stream": 2371,
      "emer": 2372,
      "cele": 2373,
      "cit": 2374,
      "factors": 2375,
      "else": 2376,
      "slow": 2377,
      "iss": 2378,
      "forest": 2379,
      "fell": 2380,
      "explan": 2381,
      "method": 2382,
      "ald": 2383,
      "bell": 2384,
      "counter": 2385,
      "address": 2386,
      "iff": 2387,
      "worked": 2388,
      "saying": 2389,
      "stage": 2390,
      "fee": 2391,
      "beha": 2392,
      "vert": 2393,
      "chemical": 2394,
      "version": 2395,
      "ond": 2396,
      "hotel": 2397,
      "names": 2398,
      "iful": 2399,
      "structure": 2400,
      "numbers": 2401,
      "liter": 2402,
      "consist": 2403,
      "global": 2404,
      "ficient": 2405,
      "hope": 2406,
      "appropri": 2407,
      "rap": 2408,
      "dies": 2409,
      "izing": 2410,
      "lights": 2411,
      "expected": 2412,
      "voc": 2413,
      "groups": 2414,
      "baby": 2415,
      "sphere": 2416,
      "function": 2417,
      "guitar": 2418,
      "item": 2419,
      "avoid": 2420,
      "exc": 2421,
      "simply": 2422,
      "famous": 2423,
      "anti": 2424,
      "active": 2425,
      "husband": 2426,
      "britain": 2427,
      "improve": 2428,
      "numer": 2429,
      "loss": 2430,
      "individuals": 2431,
      "tu": 2432,
      "execut": 2433,
      "built": 2434,
      "atmo": 2435,
      "gard": 2436,
      "attract": 2437,
      "challeng": 2438,
      "turb": 2439,
      "atlantic": 2440,
      "pred": 2441,
      "instru": 2442,
      "washington": 2443,
      "department": 2444,
      "chief": 2445,
      "celebr": 2446,
      "friendly": 2447,
      "detailed": 2448,
      "cultural": 2449,
      "referred": 2450,
      "particip": 2451,
      "whole": 2452,
      "oil": 2453,
      "cross": 2454,
      "ung": 2455,
      "screen": 2456,
      "kid": 2457,
      "activities": 2458,
      "behavi": 2459,
      "technology": 2460,
      "iter": 2461,
      "rema": 2462,
      "benef": 2463,
      "decide": 2464,
      "constit": 2465,
      "singer": 2466,
      "race": 2467,
      "domin": 2468,
      "skin": 2469,
      "sister": 2470,
      "larger": 2471,
      "labor": 2472,
      "shire": 2473,
      "causes": 2474,
      "ston": 2475,
      "cities": 2476,
      "decided": 2477,
      "fal": 2478,
      "sky": 2479,
      "iel": 2480,
      "beautiful": 2481,
      "speed": 2482,
      "model": 2483,
      "generally": 2484,
      "weather": 2485,
      "deb": 2486,
      "specifically": 2487,
      "god": 2488,
      "explanation": 2489,
      "docu": 2490,
      "feature": 2491,
      "itself": 2492,
      "centre": 2493,
      "ological": 2494,
      "products": 2495,
      "unique": 2496,
      "evidence": 2497,
      "actually": 2498,
      "province": 2499,
      "figure": 2500,
      "istic": 2501,
      "happens": 2502,
      "ength": 2503,
      "ients": 2504,
      "pread": 2505,
      "announ": 2506,
      "mir": 2507,
      "price": 2508,
      "matter": 2509,
      "paper": 2510,
      "shot": 2511,
      "regular": 2512,
      "geo": 2513,
      "imm": 2514,
      "aps": 2515,
      "ties": 2516,
      "novel": 2517,
      "actor": 2518,
      "bound": 2519,
      "films": 2520,
      "additional": 2521,
      "gin": 2522,
      "pet": 2523,
      "financial": 2524,
      "ades": 2525,
      "febr": 2526,
      "giving": 2527,
      "aign": 2528,
      "scene": 2529,
      "piece": 2530,
      "kids": 2531,
      "source": 2532,
      "metal": 2533,
      "systems": 2534,
      "describe": 2535,
      "electric": 2536,
      "mel": 2537,
      "currently": 2538,
      "colum": 2539,
      "february": 2540,
      "doctor": 2541,
      "dark": 2542,
      "earlier": 2543,
      "nothing": 2544,
      "gave": 2545,
      "attention": 2546,
      "plane": 2547,
      "instructions": 2548,
      "trip": 2549,
      "players": 2550,
      "bay": 2551,
      "poor": 2552,
      "probab": 2553,
      "campaign": 2554,
      "neighbor": 2555,
      "helps": 2556,
      "bridge": 2557,
      "comed": 2558,
      "ech": 2559,
      "revol": 2560,
      "threat": 2561,
      "cold": 2562,
      "genre": 2563,
      "highest": 2564,
      "ior": 2565,
      "peter": 2566,
      "gives": 2567,
      "entail": 2568,
      "frequ": 2569,
      "micro": 2570,
      "wish": 2571,
      "caused": 2572,
      "founded": 2573,
      "zer": 2574,
      "established": 2575,
      "minister": 2576,
      "resour": 2577,
      "ging": 2578,
      "cool": 2579,
      "fif": 2580,
      "probably": 2581,
      "infer": 2582,
      "gal": 2583,
      "everything": 2584,
      "ceed": 2585,
      "warm": 2586,
      "fair": 2587,
      "nature": 2588,
      "medical": 2589,
      "champion": 2590,
      "standing": 2591,
      "thur": 2592,
      "organis": 2593,
      "jim": 2594,
      "appropriate": 2595,
      "mou": 2596,
      "culture": 2597,
      "critic": 2598,
      "contact": 2599,
      "russia": 2600,
      "fourth": 2601,
      "verb": 2602,
      "gue": 2603,
      "soil": 2604,
      "battle": 2605,
      "arts": 2606,
      "risk": 2607,
      "ni": 2608,
      "sides": 2609,
      "thom": 2610,
      "hill": 2611,
      "ender": 2612,
      "vant": 2613,
      "purch": 2614,
      "psy": 2615,
      "agre": 2616,
      "nick": 2617,
      "levels": 2618,
      "politan": 2619,
      "oly": 2620,
      "phy": 2621,
      "bag": 2622,
      "transportation": 2623,
      "tary": 2624,
      "eria": 2625,
      "subst": 2626,
      "attempt": 2627,
      "couple": 2628,
      "simple": 2629,
      "estim": 2630,
      "ai": 2631,
      "conversation": 2632,
      "oh": 2633,
      "nut": 2634,
      "dish": 2635,
      "appears": 2636,
      "auto": 2637,
      "immedi": 2638,
      "vere": 2639,
      "leaving": 2640,
      "missing": 2641,
      "carry": 2642,
      "society": 2643,
      "manage": 2644,
      "letter": 2645,
      "ell": 2646,
      "require": 2647,
      "activity": 2648,
      "element": 2649,
      "places": 2650,
      "commer": 2651,
      "cked": 2652,
      "remains": 2653,
      "site": 2654,
      "ape": 2655,
      "ray": 2656,
      "eyes": 2657,
      "mob": 2658,
      "miles": 2659,
      "increased": 2660,
      "accident": 2661,
      "felt": 2662,
      "analyze": 2663,
      "aries": 2664,
      "beat": 2665,
      "types": 2666,
      "brown": 2667,
      "aint": 2668,
      "snow": 2669,
      "ireland": 2670,
      "tray": 2671,
      "highly": 2672,
      "icts": 2673,
      "supposed": 2674,
      "drive": 2675,
      "wrong": 2676,
      "bey": 2677,
      "easy": 2678,
      "robert": 2679,
      "conduct": 2680,
      "ae": 2681,
      "correctly": 2682,
      "cof": 2683,
      "wise": 2684,
      "metropolitan": 2685,
      "exact": 2686,
      "zy": 2687,
      "approx": 2688,
      "guess": 2689,
      "married": 2690,
      "secret": 2691,
      "occup": 2692,
      "cient": 2693,
      "burg": 2694,
      "followed": 2695,
      "iation": 2696,
      "preci": 2697,
      "serious": 2698,
      "dial": 2699,
      "perturb": 2700,
      "commonly": 2701,
      "weeks": 2702,
      "influence": 2703,
      "image": 2704,
      "alone": 2705,
      "division": 2706,
      "average": 2707,
      "igr": 2708,
      "reflect": 2709,
      "atmosphere": 2710,
      "itor": 2711,
      "ches": 2712,
      "particularly": 2713,
      "perturbation": 2714,
      "shoot": 2715,
      "movement": 2716,
      "rights": 2717,
      "aks": 2718,
      "dut": 2719,
      "empire": 2720,
      "ners": 2721,
      "continued": 2722,
      "aught": 2723,
      "leaders": 2724,
      "greek": 2725,
      "designed": 2726,
      "comfort": 2727,
      "chris": 2728,
      "multiple": 2729,
      "ift": 2730,
      "royal": 2731,
      "happened": 2732,
      "danger": 2733,
      "joe": 2734,
      "mental": 2735,
      "ications": 2736,
      "onto": 2737,
      "bri": 2738,
      "graphy": 2739,
      "aces": 2740,
      "essential": 2741,
      "valid": 2742,
      "beginning": 2743,
      "cry": 2744,
      "web": 2745,
      "opport": 2746,
      "ancient": 2747,
      "climate": 2748,
      "cook": 2749,
      "stone": 2750,
      "isn": 2751,
      "opportun": 2752,
      "coffee": 2753,
      "feeling": 2754,
      "sport": 2755,
      "meets": 2756,
      "inde": 2757,
      "sovere": 2758,
      "sovereign": 2759,
      "kar": 2760,
      "fat": 2761,
      "poll": 2762,
      "wild": 2763,
      "returns": 2764,
      "trade": 2765,
      "gent": 2766,
      "stra": 2767,
      "primary": 2768,
      "institution": 2769,
      "brand": 2770,
      "eight": 2771,
      "eli": 2772,
      "except": 2773,
      "craft": 2774,
      "fle": 2775,
      "african": 2776,
      "message": 2777,
      "whom": 2778,
      "exhib": 2779,
      "length": 2780,
      "appeared": 2781,
      "firm": 2782,
      "hands": 2783,
      "relevant": 2784,
      "arm": 2785,
      "ery": 2786,
      "internet": 2787,
      "anyone": 2788,
      "viet": 2789,
      "wealth": 2790,
      "wil": 2791,
      "wit": 2792,
      "beach": 2793,
      "glass": 2794,
      "talking": 2795,
      "cam": 2796,
      "turned": 2797,
      "drop": 2798,
      "prep": 2799,
      "catch": 2800,
      "ries": 2801,
      "atory": 2802,
      "wonder": 2803,
      "network": 2804,
      "private": 2805,
      "gaz": 2806,
      "pi": 2807,
      "ram": 2808,
      "kets": 2809,
      "lies": 2810,
      "chic": 2811,
      "organization": 2812,
      "bour": 2813,
      "brought": 2814,
      "opin": 2815,
      "perfect": 2816,
      "stren": 2817,
      "extre": 2818,
      "heard": 2819,
      "sey": 2820,
      "variety": 2821,
      "girls": 2822,
      "narr": 2823,
      "ya": 2824,
      "results": 2825,
      "reveal": 2826,
      "responsible": 2827,
      "inct": 2828,
      "impossible": 2829,
      "council": 2830,
      "bob": 2831,
      "chance": 2832,
      "training": 2833,
      "sec": 2834,
      "tree": 2835,
      "lled": 2836,
      "ira": 2837,
      "join": 2838,
      "soft": 2839,
      "demand": 2840,
      "approximately": 2841,
      "nice": 2842,
      "cred": 2843,
      "dry": 2844,
      "purpose": 2845,
      "christian": 2846,
      "condition": 2847,
      "setting": 2848,
      "astic": 2849,
      "princi": 2850,
      "chair": 2851,
      "acqu": 2852,
      "era": 2853,
      "conditions": 2854,
      "km": 2855,
      "dance": 2856,
      "ference": 2857,
      "jul": 2858,
      "zo": 2859,
      "arrest": 2860,
      "entially": 2861,
      "omy": 2862,
      "ission": 2863,
      "encour": 2864,
      "offers": 2865,
      "resident": 2866,
      "moment": 2867,
      "traditional": 2868,
      "learning": 2869,
      "bia": 2870,
      "mouth": 2871,
      "streng": 2872,
      "spent": 2873,
      "farm": 2874,
      "satisf": 2875,
      "primarily": 2876,
      "peace": 2877,
      "cases": 2878,
      "tect": 2879,
      "ening": 2880,
      "ician": 2881,
      "brief": 2882,
      "effects": 2883,
      "staff": 2884,
      "entertainment": 2885,
      "mexico": 2886,
      "educational": 2887,
      "fest": 2888,
      "reported": 2889,
      "skills": 2890,
      "disease": 2891,
      "divid": 2892,
      "winter": 2893,
      "ably": 2894,
      "voice": 2895,
      "fres": 2896,
      "wearing": 2897,
      "jump": 2898,
      "boys": 2899,
      "companies": 2900,
      "possib": 2901,
      "korea": 2902,
      "asse": 2903,
      "muse": 2904,
      "basket": 2905,
      "eye": 2906,
      "italy": 2907,
      "follows": 2908,
      "demon": 2909,
      "recorded": 2910,
      "officer": 2911,
      "mist": 2912,
      "confl": 2913,
      "starts": 2914,
      "forward": 2915,
      "stars": 2916,
      "mu": 2917,
      "hous": 2918,
      "safety": 2919,
      "swed": 2920,
      "repe": 2921,
      "fly": 2922,
      "older": 2923,
      "acid": 2924,
      "changed": 2925,
      "ables": 2926,
      "ensus": 2927,
      "increasing": 2928,
      "comment": 2929,
      "scott": 2930,
      "foreign": 2931,
      "electron": 2932,
      "nations": 2933,
      "heavy": 2934,
      "tone": 2935,
      "independent": 2936,
      "compared": 2937,
      "compos": 2938,
      "territory": 2939,
      "cop": 2940,
      "guide": 2941,
      "employ": 2942,
      "pacific": 2943,
      "agon": 2944,
      "plans": 2945,
      "lic": 2946,
      "importance": 2947,
      "rew": 2948,
      "airport": 2949,
      "behavior": 2950,
      "olymp": 2951,
      "recently": 2952,
      "memor": 2953,
      "irt": 2954,
      "jes": 2955,
      "master": 2956,
      "tried": 2957,
      "wait": 2958,
      "families": 2959,
      "nearly": 2960,
      "prior": 2961,
      "imag": 2962,
      "impress": 2963,
      "association": 2964,
      "instance": 2965,
      "plat": 2966,
      "compet": 2967,
      "growing": 2968,
      "debut": 2969,
      "crow": 2970,
      "account": 2971,
      "rail": 2972,
      "falls": 2973,
      "launch": 2974,
      "phrases": 2975,
      "nn": 2976,
      "achieve": 2977,
      "female": 2978,
      "directed": 2979,
      "tool": 2980,
      "birds": 2981,
      "runs": 2982,
      "teams": 2983,
      "regul": 2984,
      "talks": 2985,
      "gor": 2986,
      "angeles": 2987,
      "jen": 2988,
      "sad": 2989,
      "resources": 2990,
      "xide": 2991,
      "iers": 2992,
      "eating": 2993,
      "audience": 2994,
      "ror": 2995,
      "parli": 2996,
      "floor": 2997,
      "escape": 2998,
      "munic": 2999,
      "helped": 3000,
      "lived": 3001,
      "implies": 3002,
      "municip": 3003,
      "ked": 3004,
      "topic": 3005,
      "tens": 3006,
      "gul": 3007,
      "bird": 3008,
      "allows": 3009,
      "nine": 3010,
      "cze": 3011,
      "incident": 3012,
      "ultimately": 3013,
      "administrative": 3014,
      "journal": 3015,
      "difference": 3016,
      "spread": 3017,
      "progress": 3018,
      "miss": 3019,
      "ov": 3020,
      "ert": 3021,
      "concept": 3022,
      "brain": 3023,
      "contract": 3024,
      "false": 3025,
      "feed": 3026,
      "pir": 3027,
      "fan": 3028,
      "arct": 3029,
      "ado": 3030,
      "lun": 3031,
      "parliament": 3032,
      "amaz": 3033,
      "iii": 3034,
      "goals": 3035,
      "looked": 3036,
      "remove": 3037,
      "guard": 3038,
      "languages": 3039,
      "knew": 3040,
      "prime": 3041,
      "francis": 3042,
      "turk": 3043,
      "ctions": 3044,
      "coll": 3045,
      "originally": 3046,
      "via": 3047,
      "manager": 3048,
      "bran": 3049,
      "museum": 3050,
      "save": 3051,
      "ison": 3052,
      "rey": 3053,
      "justice": 3054,
      "reasoning": 3055,
      "veh": 3056,
      "distribut": 3057,
      "interview": 3058,
      "lete": 3059,
      "regions": 3060,
      "facts": 3061,
      "rules": 3062,
      "alp": 3063,
      "ering": 3064,
      "richard": 3065,
      "limited": 3066,
      "path": 3067,
      "contr": 3068,
      "magaz": 3069,
      "passed": 3070,
      "smith": 3071,
      "psych": 3072,
      "uck": 3073,
      "drin": 3074,
      "crime": 3075,
      "healthy": 3076,
      "gang": 3077,
      "emphas": 3078,
      "pool": 3079,
      "accurate": 3080,
      "journey": 3081,
      "citiz": 3082,
      "gro": 3083,
      "disappoint": 3084,
      "dioxide": 3085,
      "canad": 3086,
      "operation": 3087,
      "returned": 3088,
      "icate": 3089,
      "ville": 3090,
      "coach": 3091,
      "load": 3092,
      "liber": 3093,
      "sexual": 3094,
      "holder": 3095,
      "feet": 3096,
      "crimin": 3097,
      "speech": 3098,
      "nuclear": 3099,
      "cepts": 3100,
      "humans": 3101,
      "tun": 3102,
      "historical": 3103,
      "seat": 3104,
      "uation": 3105,
      "sn": 3106,
      "adap": 3107,
      "anth": 3108,
      "mostly": 3109,
      "requires": 3110,
      "mountains": 3111,
      "isa": 3112,
      "indust": 3113,
      "policy": 3114,
      "convey": 3115,
      "satur": 3116,
      "highlights": 3117,
      "lrb": 3118,
      "square": 3119,
      "trees": 3120,
      "goog": 3121,
      "hero": 3122,
      "formation": 3123,
      "producer": 3124,
      "schools": 3125,
      "rrb": 3126,
      "trou": 3127,
      "fru": 3128,
      "forced": 3129,
      "election": 3130,
      "ils": 3131,
      "numerous": 3132,
      "practice": 3133,
      "congress": 3134,
      "obama": 3135,
      "calls": 3136,
      "evol": 3137,
      "scot": 3138,
      "document": 3139,
      "objects": 3140,
      "dar": 3141,
      "texas": 3142,
      "cycl": 3143,
      "waste": 3144,
      "archite": 3145,
      "serve": 3146,
      "kept": 3147,
      "latin": 3148,
      "charles": 3149,
      "rupt": 3150,
      "suffer": 3151,
      "simpl": 3152,
      "google": 3153,
      "damage": 3154,
      "consequ": 3155,
      "nie": 3156,
      "link": 3157,
      "antly": 3158,
      "holding": 3159,
      "southeast": 3160,
      "sole": 3161,
      "fix": 3162,
      "wat": 3163,
      "cum": 3164,
      "mut": 3165,
      "email": 3166,
      "apped": 3167,
      "quite": 3168,
      "stress": 3169,
      "exercise": 3170,
      "spend": 3171,
      "watching": 3172,
      "ona": 3173,
      "channel": 3174,
      "mem": 3175,
      "providing": 3176,
      "ordin": 3177,
      "flor": 3178,
      "ened": 3179,
      "forts": 3180,
      "las": 3181,
      "daily": 3182,
      "isions": 3183,
      "iced": 3184,
      "picture": 3185,
      "billion": 3186,
      "throw": 3187,
      "officials": 3188,
      "custom": 3189,
      "allowed": 3190,
      "spring": 3191,
      "interested": 3192,
      "architect": 3193,
      "fresh": 3194,
      "separate": 3195,
      "creating": 3196,
      "maybe": 3197,
      "kil": 3198,
      "utions": 3199,
      "loved": 3200,
      "friday": 3201,
      "sens": 3202,
      "census": 3203,
      "atives": 3204,
      "newsp": 3205,
      "fuel": 3206,
      "hear": 3207,
      "detect": 3208,
      "myster": 3209,
      "items": 3210,
      "dress": 3211,
      "ising": 3212,
      "gather": 3213,
      "commission": 3214,
      "extreme": 3215,
      "ome": 3216,
      "turning": 3217,
      "walking": 3218,
      "majority": 3219,
      "czech": 3220,
      "queen": 3221,
      "shel": 3222,
      "becoming": 3223,
      "victim": 3224,
      "cars": 3225,
      "causing": 3226,
      "stories": 3227,
      "boat": 3228,
      "donald": 3229,
      "australian": 3230,
      "ites": 3231,
      "shar": 3232,
      "sources": 3233,
      "victor": 3234,
      "iran": 3235,
      "tempor": 3236,
      "aspects": 3237,
      "incorrect": 3238,
      "thinking": 3239,
      "mole": 3240,
      "charge": 3241,
      "tan": 3242,
      "icks": 3243,
      "immediately": 3244,
      "cel": 3245,
      "riage": 3246,
      "chicago": 3247,
      "finding": 3248,
      "borders": 3249,
      "weak": 3250,
      "championship": 3251,
      "moon": 3252,
      "nov": 3253,
      "required": 3254,
      "decrease": 3255,
      "destroy": 3256,
      "identified": 3257,
      "coal": 3258,
      "ita": 3259,
      "rick": 3260,
      "webs": 3261,
      "religious": 3262,
      "ises": 3263,
      "looks": 3264,
      "sees": 3265,
      "suggested": 3266,
      "machine": 3267,
      "ime": 3268,
      "rocks": 3269,
      "extra": 3270,
      "meanwhile": 3271,
      "tas": 3272,
      "organisms": 3273,
      "ek": 3274,
      "presence": 3275,
      "core": 3276,
      "chest": 3277,
      "zz": 3278,
      "thomas": 3279,
      "symb": 3280,
      "ivity": 3281,
      "icated": 3282,
      "sud": 3283,
      "jam": 3284,
      "mike": 3285,
      "hid": 3286,
      "windows": 3287,
      "onic": 3288,
      "icit": 3289,
      "nar": 3290,
      "standard": 3291,
      "entailed": 3292,
      "strugg": 3293,
      "awards": 3294,
      "serves": 3295,
      "philip": 3296,
      "touchdown": 3297,
      "illy": 3298,
      "prom": 3299,
      "recording": 3300,
      "insu": 3301,
      "fiction": 3302,
      "driving": 3303,
      "indicates": 3304,
      "plate": 3305,
      "spaces": 3306,
      "wards": 3307,
      "berg": 3308,
      "sitting": 3309,
      "rial": 3310,
      "alternative": 3311,
      "thous": 3312,
      "decides": 3313,
      "cancer": 3314,
      "virgin": 3315,
      "canadian": 3316,
      "prefer": 3317,
      "expand": 3318,
      "categories": 3319,
      "basketball": 3320,
      "initially": 3321,
      "connection": 3322,
      "experiences": 3323,
      "kr": 3324,
      "advent": 3325,
      "tee": 3326,
      "manu": 3327,
      "louis": 3328,
      "efforts": 3329,
      "materials": 3330,
      "leads": 3331,
      "harm": 3332,
      "kim": 3333,
      "atom": 3334,
      "constru": 3335,
      "normal": 3336,
      "thousand": 3337,
      "uries": 3338,
      "ki": 3339,
      "estimated": 3340,
      "nearby": 3341,
      "distance": 3342,
      "continues": 3343,
      "compon": 3344,
      "indirect": 3345,
      "section": 3346,
      "claims": 3347,
      "planet": 3348,
      "dor": 3349,
      "terror": 3350,
      "studied": 3351,
      "propos": 3352,
      "challenges": 3353,
      "theat": 3354,
      "defe": 3355,
      "rise": 3356,
      "painting": 3357,
      "otherwise": 3358,
      "drum": 3359,
      "sunday": 3360,
      "actress": 3361,
      "involve": 3362,
      "trust": 3363,
      "dur": 3364,
      "agent": 3365,
      "rivers": 3366,
      "bol": 3367,
      "flight": 3368,
      "truth": 3369,
      "herself": 3370,
      "completely": 3371,
      "assu": 3372,
      "competition": 3373,
      "zone": 3374,
      "rang": 3375,
      "und": 3376,
      "egy": 3377,
      "suitable": 3378,
      "kel": 3379,
      "alleg": 3380,
      "description": 3381,
      "pieces": 3382,
      "bomb": 3383,
      "monday": 3384,
      "garden": 3385,
      "device": 3386,
      "satisfied": 3387,
      "crash": 3388,
      "unit": 3389,
      "ij": 3390,
      "print": 3391,
      "\".": 3392,
      "tues": 3393,
      "athlete": 3394,
      "sugar": 3395,
      "mrs": 3396,
      "powerful": 3397,
      "status": 3398,
      "reasons": 3399,
      "appearance": 3400,
      "itude": 3401,
      "manufact": 3402,
      "itation": 3403,
      "appreci": 3404,
      "nit": 3405,
      "carol": 3406,
      "turns": 3407,
      "aud": 3408,
      "considering": 3409,
      "potentially": 3410,
      "pictures": 3411,
      "iled": 3412,
      "previously": 3413,
      "involves": 3414,
      "eg": 3415,
      "drink": 3416,
      "rose": 3417,
      "resist": 3418,
      "ander": 3419,
      "improv": 3420,
      "bass": 3421,
      "pian": 3422,
      "jose": 3423,
      "lip": 3424,
      "dred": 3425,
      "crucial": 3426,
      "initial": 3427,
      "request": 3428,
      "americans": 3429,
      "website": 3430,
      "ula": 3431,
      "values": 3432,
      "gry": 3433,
      "iling": 3434,
      "possess": 3435,
      "pron": 3436,
      "enty": 3437,
      "chain": 3438,
      "clar": 3439,
      "cd": 3440,
      "workers": 3441,
      "prince": 3442,
      "iet": 3443,
      "performed": 3444,
      "learned": 3445,
      "acting": 3446,
      "commercial": 3447,
      "ously": 3448,
      "sales": 3449,
      "swim": 3450,
      "comedy": 3451,
      "ato": 3452,
      "reached": 3453,
      "opened": 3454,
      "geograph": 3455,
      "cub": 3456,
      "bact": 3457,
      "martin": 3458,
      "talent": 3459,
      "yer": 3460,
      "acking": 3461,
      "henry": 3462,
      "construction": 3463,
      "apple": 3464,
      "susp": 3465,
      "oso": 3466,
      "studies": 3467,
      "democratic": 3468,
      "discover": 3469,
      "score": 3470,
      "easily": 3471,
      "investigation": 3472,
      "protest": 3473,
      "emotional": 3474,
      "kick": 3475,
      "demonstr": 3476,
      "feelings": 3477,
      "dire": 3478,
      "consum": 3479,
      "artists": 3480,
      "ena": 3481,
      "sudden": 3482,
      "owner": 3483,
      "mechan": 3484,
      "couldn": 3485,
      "wear": 3486,
      "scientists": 3487,
      "fant": 3488,
      "owned": 3489,
      "symbol": 3490,
      "employe": 3491,
      "candid": 3492,
      "epis": 3493,
      "widely": 3494,
      "analysis": 3495,
      "presented": 3496,
      "cin": 3497,
      "scientific": 3498,
      "logical": 3499,
      "ifying": 3500,
      "opening": 3501,
      "believed": 3502,
      "cher": 3503,
      "isol": 3504,
      "peninsu": 3505,
      "fans": 3506,
      "interesting": 3507,
      "vari": 3508,
      "none": 3509,
      "professor": 3510,
      "lady": 3511,
      "ogue": 3512,
      "spot": 3513,
      "greg": 3514,
      "starting": 3515,
      "bles": 3516,
      "bin": 3517,
      "adding": 3518,
      "relative": 3519,
      "uate": 3520,
      "wasn": 3521,
      "apartment": 3522,
      "shares": 3523,
      "suspect": 3524,
      "grant": 3525,
      "weap": 3526,
      "rou": 3527,
      "presents": 3528,
      "math": 3529,
      "string": 3530,
      "closed": 3531,
      "stock": 3532,
      "stain": 3533,
      "mov": 3534,
      "evening": 3535,
      "conserv": 3536,
      "eld": 3537,
      "tuesday": 3538,
      "page": 3539,
      "tware": 3540,
      "exchange": 3541,
      "northwest": 3542,
      "speaking": 3543,
      "beth": 3544,
      "consists": 3545,
      "veget": 3546,
      "reasonable": 3547,
      "motor": 3548,
      "nur": 3549,
      "surrounding": 3550,
      "software": 3551,
      "oth": 3552,
      "gers": 3553,
      "intell": 3554,
      "dogs": 3555,
      "stad": 3556,
      "cath": 3557,
      "driver": 3558,
      "marriage": 3559,
      "absor": 3560,
      "minor": 3561,
      "winning": 3562,
      "ius": 3563,
      "aid": 3564,
      "governor": 3565,
      "bath": 3566,
      "nis": 3567,
      "reser": 3568,
      "intellig": 3569,
      "pil": 3570,
      "olf": 3571,
      "scotland": 3572,
      "cycle": 3573,
      "replace": 3574,
      "depending": 3575,
      "believes": 3576,
      "lling": 3577,
      "sarah": 3578,
      "bordered": 3579,
      "push": 3580,
      "broken": 3581,
      "announced": 3582,
      "istics": 3583,
      "nish": 3584,
      "tes": 3585,
      "stan": 3586,
      "dinner": 3587,
      "grass": 3588,
      "gulf": 3589,
      "critical": 3590,
      "oud": 3591,
      "isra": 3592,
      "anta": 3593,
      "fear": 3594,
      "gone": 3595,
      "cab": 3596,
      "paid": 3597,
      "sac": 3598,
      "deliver": 3599,
      "hundred": 3600,
      "spl": 3601,
      "ques": 3602,
      "mol": 3603,
      "rule": 3604,
      "airs": 3605,
      "thes": 3606,
      "acts": 3607,
      "belief": 3608,
      "scale": 3609,
      "effort": 3610,
      "situated": 3611,
      "saint": 3612,
      "scr": 3613,
      "peninsula": 3614,
      "pra": 3615,
      "compare": 3616,
      "ean": 3617,
      "discovered": 3618,
      "tam": 3619,
      "nan": 3620,
      "bought": 3621,
      "ume": 3622,
      "passeng": 3623,
      "harry": 3624,
      "zen": 3625,
      "clearly": 3626,
      "waves": 3627,
      "jeff": 3628,
      "pel": 3629,
      "techni": 3630,
      "magazine": 3631,
      "hang": 3632,
      "tall": 3633,
      "determined": 3634,
      "cow": 3635,
      "ideas": 3636,
      "captain": 3637,
      "yourself": 3638,
      "academy": 3639,
      "southwest": 3640,
      "turkish": 3641,
      "eds": 3642,
      "vac": 3643,
      "collection": 3644,
      "consci": 3645,
      "mobile": 3646,
      "telling": 3647,
      "adam": 3648,
      "fortun": 3649,
      "executive": 3650,
      "zi": 3651,
      "eval": 3652,
      "slight": 3653,
      "secretary": 3654,
      "reports": 3655,
      "agreement": 3656,
      "promis": 3657,
      "salt": 3658,
      "revolution": 3659,
      "equal": 3660,
      "economy": 3661,
      "joined": 3662,
      "scri": 3663,
      "ria": 3664,
      "satisfact": 3665,
      "management": 3666,
      "conference": 3667,
      "holds": 3668,
      "liqu": 3669,
      "distinct": 3670,
      "ining": 3671,
      "baseball": 3672,
      "sir": 3673,
      "icles": 3674,
      "treatment": 3675,
      "ode": 3676,
      "iven": 3677,
      "construct": 3678,
      "horse": 3679,
      "ole": 3680,
      "occas": 3681,
      "wis": 3682,
      "administration": 3683,
      "finish": 3684,
      "shown": 3685,
      "iance": 3686,
      "height": 3687,
      "witness": 3688,
      "strength": 3689,
      "bush": 3690,
      "advert": 3691,
      "medic": 3692,
      "rand": 3693,
      "fing": 3694,
      "valley": 3695,
      "defense": 3696,
      "introduced": 3697,
      "stated": 3698,
      "sufficient": 3699,
      "bat": 3700,
      "judge": 3701,
      "equip": 3702,
      "separated": 3703,
      "libr": 3704,
      "cha": 3705,
      "beyond": 3706,
      "strict": 3707,
      "serving": 3708,
      "albums": 3709,
      "insp": 3710,
      "reli": 3711,
      "lord": 3712,
      "chester": 3713,
      "traf": 3714,
      "sets": 3715,
      "kin": 3716,
      "wan": 3717,
      "florida": 3718,
      "crew": 3719,
      "ounds": 3720,
      "replaced": 3721,
      "punct": 3722,
      "diff": 3723,
      "subsequ": 3724,
      "iny": 3725,
      "igned": 3726,
      "festival": 3727,
      "ops": 3728,
      "christmas": 3729,
      "buying": 3730,
      "calcul": 3731,
      "discovers": 3732,
      "castle": 3733,
      "northeast": 3734,
      "qual": 3735,
      "movies": 3736,
      "experienced": 3737,
      "fash": 3738,
      "tag": 3739,
      "reviews": 3740,
      "filled": 3741,
      "settle": 3742,
      "camera": 3743,
      "reduce": 3744,
      "gall": 3745,
      "sher": 3746,
      "compris": 3747,
      "rome": 3748,
      "resulting": 3749,
      "islam": 3750,
      "sect": 3751,
      "mainly": 3752,
      "partner": 3753,
      "legisl": 3754,
      "alco": 3755,
      "knowing": 3756,
      "anne": 3757,
      "attempts": 3758,
      "guy": 3759,
      "tay": 3760,
      "seeing": 3761,
      "authorities": 3762,
      "republican": 3763,
      "personx": 3764,
      "shared": 3765,
      "advant": 3766,
      "drama": 3767,
      "effective": 3768,
      "waiting": 3769,
      "enc": 3770,
      "philoso": 3771,
      "code": 3772,
      "shor": 3773,
      "selling": 3774,
      "aland": 3775,
      "yell": 3776,
      "direction": 3777,
      "receive": 3778,
      "property": 3779,
      "rub": 3780,
      "regarding": 3781,
      "speaker": 3782,
      "slo": 3783,
      "iron": 3784,
      "attacks": 3785,
      "incorpor": 3786,
      "jun": 3787,
      "ski": 3788,
      "discuss": 3789,
      "aus": 3790,
      "ched": 3791,
      "fox": 3792,
      "arms": 3793,
      "oppos": 3794,
      "prise": 3795,
      "cket": 3796,
      "excl": 3797,
      "erson": 3798,
      "saturday": 3799,
      "resol": 3800,
      "spirit": 3801,
      "electr": 3802,
      "send": 3803,
      "mine": 3804,
      "oli": 3805,
      "fashion": 3806,
      "fine": 3807,
      "claimed": 3808,
      "favorite": 3809,
      "inn": 3810,
      "cles": 3811,
      "killing": 3812,
      "increases": 3813,
      "keeping": 3814,
      "fro": 3815,
      "double": 3816,
      "holiday": 3817,
      "ost": 3818,
      "users": 3819,
      "mediter": 3820,
      "concent": 3821,
      "lla": 3822,
      "conflict": 3823,
      "rank": 3824,
      "noun": 3825,
      "mediterran": 3826,
      "connected": 3827,
      "fred": 3828,
      "irish": 3829,
      "communication": 3830,
      "pursu": 3831,
      "swe": 3832,
      "mediterranean": 3833,
      "defined": 3834,
      "eper": 3835,
      "arrives": 3836,
      "operations": 3837,
      "thurs": 3838,
      "surpris": 3839,
      "attribut": 3840,
      "ene": 3841,
      "opinion": 3842,
      "carefully": 3843,
      "authority": 3844,
      "dollar": 3845,
      "pak": 3846,
      "officers": 3847,
      "aust": 3848,
      "iger": 3849,
      "broadcast": 3850,
      "promin": 3851,
      "solid": 3852,
      "marine": 3853,
      "bron": 3854,
      "guest": 3855,
      "suppose": 3856,
      "younger": 3857,
      "dad": 3858,
      "patter": 3859,
      "soviet": 3860,
      "korean": 3861,
      "wednes": 3862,
      "explicit": 3863,
      "jackson": 3864,
      "agency": 3865,
      "immigr": 3866,
      "dangerous": 3867,
      "intended": 3868,
      "icious": 3869,
      "preser": 3870,
      "ura": 3871,
      "reaction": 3872,
      "remaining": 3873,
      "inhabit": 3874,
      "convent": 3875,
      "ota": 3876,
      "abilities": 3877,
      "shape": 3878,
      "braz": 3879,
      "stu": 3880,
      "olic": 3881,
      "unable": 3882,
      "tower": 3883,
      "patient": 3884,
      "integr": 3885,
      "ults": 3886,
      "clothes": 3887,
      "burn": 3888,
      "fi": 3889,
      "sem": 3890,
      "completed": 3891,
      "notes": 3892,
      "particles": 3893,
      "file": 3894,
      "wednesday": 3895,
      "volcan": 3896,
      "valu": 3897,
      "residents": 3898,
      "bodies": 3899,
      "transfer": 3900,
      "environmental": 3901,
      "alpha": 3902,
      "huge": 3903,
      "trial": 3904,
      "lind": 3905,
      "fewer": 3906,
      "indicate": 3907,
      "moves": 3908,
      "zed": 3909,
      "pollution": 3910,
      "thursday": 3911,
      "pretty": 3912,
      "measure": 3913,
      "iraq": 3914,
      "summar": 3915,
      "adult": 3916,
      "alcohol": 3917,
      "brothers": 3918,
      "aling": 3919,
      "ito": 3920,
      "agric": 3921,
      "solute": 3922,
      "reven": 3923,
      "til": 3924,
      "sched": 3925,
      "comfortable": 3926,
      "classical": 3927,
      "jobs": 3928,
      "statements": 3929,
      "kers": 3930,
      "chart": 3931,
      "ying": 3932,
      "ku": 3933,
      "pic": 3934,
      "experiment": 3935,
      "motion": 3936,
      "laws": 3937,
      "pleas": 3938,
      "wing": 3939,
      "consu": 3940,
      "infect": 3941,
      "conscious": 3942,
      "yards": 3943,
      "flat": 3944,
      "gam": 3945,
      "luck": 3946,
      "hou": 3947,
      "jones": 3948,
      "occurs": 3949,
      "trig": 3950,
      "freed": 3951,
      "ara": 3952,
      "programs": 3953,
      "spain": 3954,
      "responsib": 3955,
      "explor": 3956,
      "opportunity": 3957,
      "contrast": 3958,
      "laugh": 3959,
      "dialogue": 3960,
      "robin": 3961,
      "customers": 3962,
      "allowing": 3963,
      "digital": 3964,
      "cnn": 3965,
      "rough": 3966,
      "hydro": 3967,
      "wales": 3968,
      "mont": 3969,
      "strateg": 3970,
      "nif": 3971,
      "boss": 3972,
      "caught": 3973,
      "navig": 3974,
      "opera": 3975,
      "raised": 3976,
      "plement": 3977,
      "ario": 3978,
      "ini": 3979,
      "raid": 3980,
      "shap": 3981,
      "genet": 3982,
      "aked": 3983,
      "composed": 3984,
      "steve": 3985,
      "degree": 3986,
      "hong": 3987,
      "vocal": 3988,
      "pas": 3989,
      "diverse": 3990,
      "marks": 3991,
      "hes": 3992,
      "fighting": 3993,
      "install": 3994,
      "azz": 3995,
      "nast": 3996,
      "pap": 3997,
      "committee": 3998,
      "lungs": 3999,
      "newspaper": 4000,
      "conclud": 4001,
      "fellow": 4002,
      "powers": 4003,
      "mans": 4004,
      "anda": 4005,
      "breaking": 4006,
      "arrive": 4007,
      "signed": 4008,
      "generated": 4009,
      "sid": 4010,
      "profession": 4011,
      "hed": 4012,
      "atta": 4013,
      "thered": 4014,
      "ifies": 4015,
      "basic": 4016,
      "itter": 4017,
      "industrial": 4018,
      "aircraft": 4019,
      "spoken": 4020,
      "skill": 4021,
      "asy": 4022,
      "images": 4023,
      "syl": 4024,
      "storm": 4025,
      "polish": 4026,
      "helping": 4027,
      "isis": 4028,
      "identity": 4029,
      "fifth": 4030,
      "violence": 4031,
      "cking": 4032,
      "advis": 4033,
      "thanks": 4034,
      "symp": 4035,
      "kong": 4036,
      "colon": 4037,
      "pronoun": 4038,
      "traffic": 4039,
      "territories": 4040,
      "clubs": 4041,
      "bled": 4042,
      "obtain": 4043,
      "affected": 4044,
      "grav": 4045,
      "constitution": 4046,
      "dem": 4047,
      "showed": 4048,
      "ulate": 4049,
      "jane": 4050,
      "sounds": 4051,
      "isher": 4052,
      "brazil": 4053,
      "mom": 4054,
      "attend": 4055,
      "bright": 4056,
      "golden": 4057,
      "exactly": 4058,
      "criminal": 4059,
      "lyn": 4060,
      "regional": 4061,
      "historic": 4062,
      "soldiers": 4063,
      "flowers": 4064,
      "orders": 4065,
      "impacting": 4066,
      "memory": 4067,
      "largely": 4068,
      "sin": 4069,
      "combine": 4070,
      "finnish": 4071,
      "birthday": 4072,
      "collabor": 4073,
      "engage": 4074,
      "dney": 4075,
      "combined": 4076,
      "rooms": 4077,
      "extens": 4078,
      "pakistan": 4079,
      "concerns": 4080,
      "emotions": 4081,
      "pit": 4082,
      "lam": 4083,
      "oking": 4084,
      "ghan": 4085,
      "explains": 4086,
      "uan": 4087,
      "definite": 4088,
      "onom": 4089,
      "temporary": 4090,
      "abs": 4091,
      "portray": 4092,
      "eggs": 4093,
      "accompl": 4094,
      "rare": 4095,
      "attor": 4096,
      "arrived": 4097,
      "theory": 4098,
      "lock": 4099,
      "prepar": 4100,
      "absolute": 4101,
      "zealand": 4102,
      "competit": 4103,
      "organiz": 4104,
      "minim": 4105,
      "portion": 4106,
      "folk": 4107,
      "jordan": 4108,
      "yellow": 4109,
      "diet": 4110,
      "dia": 4111,
      "milk": 4112,
      "faces": 4113,
      "easier": 4114,
      "foc": 4115,
      "municipality": 4116,
      "preh": 4117,
      "inhabitants": 4118,
      "virus": 4119,
      "taylor": 4120,
      "sick": 4121,
      "satisfaction": 4122,
      "quarters": 4123,
      "els": 4124,
      "esty": 4125,
      "foss": 4126,
      "agreed": 4127,
      "senior": 4128,
      "ride": 4129,
      "matic": 4130,
      "religion": 4131,
      "failed": 4132,
      "classify": 4133,
      "nomin": 4134,
      "severe": 4135,
      "eco": 4136,
      "thank": 4137,
      "indones": 4138,
      "revealed": 4139,
      "performances": 4140,
      "straight": 4141,
      "differences": 4142,
      "girlfriend": 4143,
      "relationships": 4144,
      "alan": 4145,
      "feels": 4146,
      "aware": 4147,
      "divided": 4148,
      "bond": 4149,
      "virginia": 4150,
      "arent": 4151,
      "kno": 4152,
      "toy": 4153,
      "worldwide": 4154,
      "balance": 4155,
      "bacteria": 4156,
      "gary": 4157,
      "arctic": 4158,
      "confir": 4159,
      "nether": 4160,
      "penn": 4161,
      "butter": 4162,
      "planning": 4163,
      "buildings": 4164,
      "mate": 4165,
      "sites": 4166,
      "stadium": 4167,
      "jur": 4168,
      "performing": 4169,
      "provin": 4170,
      "ote": 4171,
      "victory": 4172,
      "truck": 4173,
      "longest": 4174,
      "expresses": 4175,
      "roles": 4176,
      "usual": 4177,
      "benefits": 4178,
      "apparent": 4179,
      "frustr": 4180,
      "astr": 4181,
      "mam": 4182,
      "bun": 4183,
      "lose": 4184,
      "budget": 4185,
      "advice": 4186,
      "greatest": 4187,
      "stick": 4188,
      "ister": 4189,
      "emper": 4190,
      "expensive": 4191,
      "elected": 4192,
      "estic": 4193,
      "bbc": 4194,
      "argument": 4195,
      "haps": 4196,
      "offered": 4197,
      "fruit": 4198,
      "remained": 4199,
      "block": 4200,
      "dutch": 4201,
      "arrested": 4202,
      "matt": 4203,
      "knows": 4204,
      "letters": 4205,
      "agers": 4206,
      "spending": 4207,
      "excell": 4208,
      "amed": 4209,
      "willing": 4210,
      "greece": 4211,
      "preced": 4212,
      "parent": 4213,
      "igan": 4214,
      "perhaps": 4215,
      "arrange": 4216,
      "sett": 4217,
      "recognized": 4218,
      "advan": 4219,
      "iar": 4220,
      "presidential": 4221,
      "conve": 4222,
      "foun": 4223,
      "neut": 4224,
      "sweden": 4225,
      "assess": 4226,
      "necessarily": 4227,
      "inferred": 4228,
      "hat": 4229,
      "operating": 4230,
      "accurately": 4231,
      "brad": 4232,
      "mitted": 4233,
      "researchers": 4234,
      "excess": 4235,
      "generation": 4236,
      "shirt": 4237,
      "bic": 4238,
      "chances": 4239,
      "reference": 4240,
      "holly": 4241,
      "notable": 4242,
      "brow": 4243,
      "finished": 4244,
      "armed": 4245,
      "senate": 4246,
      "gency": 4247,
      "chor": 4248,
      "ias": 4249,
      "austri": 4250,
      "francisco": 4251,
      "tony": 4252,
      "jar": 4253,
      "approv": 4254,
      "changing": 4255,
      "efficient": 4256,
      "latest": 4257,
      "zing": 4258,
      "secut": 4259,
      "blow": 4260,
      "jazz": 4261,
      "afghan": 4262,
      "stal": 4263,
      "cham": 4264,
      "strange": 4265,
      "upper": 4266,
      "sediment": 4267,
      "focused": 4268,
      "shad": 4269,
      "sie": 4270,
      "vote": 4271,
      "contribute": 4272,
      "ored": 4273,
      "schol": 4274,
      "concepts": 4275,
      "gia": 4276,
      "faster": 4277,
      "beauty": 4278,
      "iana": 4279,
      "wedding": 4280,
      "doct": 4281,
      "sydney": 4282,
      "developing": 4283,
      "houses": 4284,
      "wid": 4285,
      "adopt": 4286,
      "turkey": 4287,
      "populated": 4288,
      "poses": 4289,
      "cade": 4290,
      "annual": 4291,
      "expressed": 4292,
      "nd": 4293,
      "miner": 4294,
      "disco": 4295,
      "edge": 4296,
      "branch": 4297,
      "shooting": 4298,
      "supported": 4299,
      "liquid": 4300,
      "justification": 4301,
      "convin": 4302,
      "netherlands": 4303,
      "proposal": 4304,
      "constant": 4305,
      "porters": 4306,
      "seas": 4307,
      "relax": 4308,
      "library": 4309,
      "mixed": 4310,
      "nutri": 4311,
      "ador": 4312,
      "correspon": 4313,
      "rat": 4314,
      "marked": 4315,
      "influenced": 4316,
      "isto": 4317,
      "kitch": 4318,
      "cash": 4319,
      "rapid": 4320,
      "methods": 4321,
      "prepare": 4322,
      "concentr": 4323,
      "ships": 4324,
      "batter": 4325,
      "rh": 4326,
      "musician": 4327,
      "twice": 4328,
      "carried": 4329,
      "concert": 4330,
      "emotion": 4331,
      "applied": 4332,
      "lots": 4333,
      "lyric": 4334,
      "ey": 4335,
      "protection": 4336,
      "electronic": 4337,
      "eliza": 4338,
      "bike": 4339,
      "shopping": 4340,
      "solo": 4341,
      "components": 4342,
      "rot": 4343,
      "ww": 4344,
      "kat": 4345,
      "cules": 4346,
      "pregn": 4347,
      "pitch": 4348,
      "invent": 4349,
      "suddenly": 4350,
      "faced": 4351,
      "loy": 4352,
      "ano": 4353,
      "continental": 4354,
      "rice": 4355,
      "corner": 4356,
      "bear": 4357,
      "slightly": 4358,
      "earthqu": 4359,
      "rhy": 4360,
      "meter": 4361,
      "ishing": 4362,
      "resc": 4363,
      "compass": 4364,
      "athlet": 4365,
      "ava": 4366,
      "ugu": 4367,
      "hurt": 4368,
      "youth": 4369,
      "exhibits": 4370,
      "clint": 4371,
      "properly": 4372,
      "jac": 4373,
      "acknow": 4374,
      "charged": 4375,
      "minute": 4376,
      "anna": 4377,
      "bra": 4378,
      "proposed": 4379,
      "sym": 4380,
      "toward": 4381,
      "literature": 4382,
      "reci": 4383,
      "parties": 4384,
      "copy": 4385,
      "tion": 4386,
      "noon": 4387,
      "scenario": 4388,
      "encounter": 4389,
      "removed": 4390,
      "ola": 4391,
      "aband": 4392,
      "likes": 4393,
      "angry": 4394,
      "vit": 4395,
      "intelligence": 4396,
      "enge": 4397,
      "stret": 4398,
      "pressing": 4399,
      "effectively": 4400,
      "anton": 4401,
      "reality": 4402,
      "assum": 4403,
      "unfortun": 4404,
      "freedom": 4405,
      "hearing": 4406,
      "inner": 4407,
      "scored": 4408,
      "purchase": 4409,
      "ryan": 4410,
      "remind": 4411,
      "stopped": 4412,
      "honor": 4413,
      "nas": 4414,
      "orchest": 4415,
      "bang": 4416,
      "singing": 4417,
      "abbre": 4418,
      "succeed": 4419,
      "creation": 4420,
      "dates": 4421,
      "fare": 4422,
      "wave": 4423,
      "iles": 4424,
      "agrees": 4425,
      "apply": 4426,
      "patients": 4427,
      "singles": 4428,
      "thousands": 4429,
      "dun": 4430,
      "listen": 4431,
      "mates": 4432,
      "abbrevi": 4433,
      "joseph": 4434,
      "slowly": 4435,
      "johnson": 4436,
      "ensity": 4437,
      "equipment": 4438,
      "smart": 4439,
      "conver": 4440,
      "yo": 4441,
      "ckey": 4442,
      "otic": 4443,
      "jay": 4444,
      "bowl": 4445,
      "indeed": 4446,
      "catholic": 4447,
      "ains": 4448,
      "predict": 4449,
      "seeking": 4450,
      "daniel": 4451,
      "trouble": 4452,
      "fection": 4453,
      "sia": 4454,
      "suic": 4455,
      "bottom": 4456,
      "twitter": 4457,
      "borough": 4458,
      "corporation": 4459,
      "versity": 4460,
      "silver": 4461,
      "ingred": 4462,
      "belg": 4463,
      "thoughts": 4464,
      "meal": 4465,
      "desire": 4466,
      "ware": 4467,
      "egypt": 4468,
      "quiet": 4469,
      "capac": 4470,
      "flash": 4471,
      "brea": 4472,
      "indicating": 4473,
      "elev": 4474,
      "faith": 4475,
      "column": 4476,
      "beij": 4477,
      "fields": 4478,
      "pup": 4479,
      "maintaining": 4480,
      "gene": 4481,
      "twenty": 4482,
      "israel": 4483,
      "beijing": 4484,
      "consequences": 4485,
      "encing": 4486,
      "edward": 4487,
      "embar": 4488,
      "mond": 4489,
      "summarize": 4490,
      "hole": 4491,
      "kitchen": 4492,
      "facing": 4493,
      "nap": 4494,
      "reveals": 4495,
      "composer": 4496,
      "featured": 4497,
      "muslim": 4498,
      "brian": 4499,
      "calling": 4500,
      "ahead": 4501,
      "visual": 4502,
      "attering": 4503,
      "vary": 4504,
      "sunlight": 4505,
      "escap": 4506,
      "adapt": 4507,
      "inspired": 4508,
      "theastern": 4509,
      "apor": 4510,
      "ordered": 4511,
      "photograph": 4512,
      "surrounded": 4513,
      "closer": 4514,
      "vehicle": 4515,
      "sharing": 4516,
      "facebook": 4517,
      "empty": 4518,
      "possibly": 4519,
      "alle": 4520,
      "citizens": 4521,
      "insul": 4522,
      "dram": 4523,
      "supply": 4524,
      "asian": 4525,
      "adults": 4526,
      "ception": 4527,
      "volun": 4528,
      "narrator": 4529,
      "mayor": 4530,
      "iring": 4531,
      "grade": 4532,
      "ji": 4533,
      "rod": 4534,
      "costs": 4535,
      "unknown": 4536,
      "drinking": 4537,
      "display": 4538,
      "comic": 4539,
      "vast": 4540,
      "counts": 4541,
      "dim": 4542,
      "unanswerable": 4543,
      "vamp": 4544,
      "planned": 4545,
      "useful": 4546,
      "boston": 4547,
      "steel": 4548,
      "formerly": 4549,
      "listed": 4550,
      "definitely": 4551,
      "osion": 4552,
      "covering": 4553,
      "rout": 4554,
      "expert": 4555,
      "herit": 4556,
      "meat": 4557,
      "songwriter": 4558,
      "pes": 4559,
      "punk": 4560,
      "occupation": 4561,
      "onia": 4562,
      "tend": 4563,
      "odes": 4564,
      "controver": 4565,
      "lunch": 4566,
      "navy": 4567,
      "lets": 4568,
      "imagine": 4569,
      "cular": 4570,
      "prominent": 4571,
      "compreh": 4572,
      "etc": 4573,
      "managed": 4574,
      "lap": 4575,
      "examples": 4576,
      "uce": 4577,
      "wy": 4578,
      "seemed": 4579,
      "foundation": 4580,
      "partners": 4581,
      "bean": 4582,
      "doub": 4583,
      "poly": 4584,
      "haw": 4585,
      "emperor": 4586,
      "taste": 4587,
      "classes": 4588,
      "reput": 4589,
      "porter": 4590,
      "involving": 4591,
      "prize": 4592,
      "solar": 4593,
      "grammat": 4594,
      "suring": 4595,
      "dated": 4596,
      "contest": 4597,
      "cerem": 4598,
      "waters": 4599,
      "pm": 4600,
      "explicitly": 4601,
      "politics": 4602,
      "independence": 4603,
      "charges": 4604,
      "extremely": 4605,
      "molecules": 4606,
      "properties": 4607,
      "academic": 4608,
      "format": 4609,
      "ili": 4610,
      "pour": 4611,
      "ws": 4612,
      "endo": 4613,
      "motiv": 4614,
      "ua": 4615,
      "von": 4616,
      "punctuation": 4617,
      "pression": 4618,
      "premier": 4619,
      "billy": 4620,
      "implement": 4621,
      "showing": 4622,
      "enjoyed": 4623,
      "persian": 4624,
      "frequently": 4625,
      "unders": 4626,
      "photos": 4627,
      "ez": 4628,
      "internal": 4629,
      "medicine": 4630,
      "aphr": 4631,
      "comments": 4632,
      "afford": 4633,
      "theatre": 4634,
      "suggestion": 4635,
      "organized": 4636,
      "volume": 4637,
      "notice": 4638,
      "maxim": 4639,
      "williams": 4640,
      "bish": 4641,
      "thinks": 4642,
      "gift": 4643,
      "filter": 4644,
      "kills": 4645,
      "kan": 4646,
      "rates": 4647,
      "secure": 4648,
      "describing": 4649,
      "electricity": 4650,
      "charlie": 4651,
      "sate": 4652,
      "grew": 4653,
      "learns": 4654,
      "biggest": 4655,
      "digest": 4656,
      "negot": 4657,
      "attorney": 4658,
      "jason": 4659,
      "bid": 4660,
      "homes": 4661,
      "elizabeth": 4662,
      "entirely": 4663,
      "boyfriend": 4664,
      "chick": 4665,
      "occurred": 4666,
      "tracks": 4667,
      "umin": 4668,
      "rug": 4669,
      "phones": 4670,
      "hate": 4671,
      "advantage": 4672,
      "putting": 4673,
      "sweet": 4674,
      "hay": 4675,
      "pin": 4676,
      "offering": 4677,
      "rent": 4678,
      "drugs": 4679,
      "ami": 4680,
      "johnny": 4681,
      "diction": 4682,
      "romanian": 4683,
      "credit": 4684,
      "mainland": 4685,
      "toms": 4686,
      "measures": 4687,
      "supporting": 4688,
      "tension": 4689,
      "reply": 4690,
      "usive": 4691,
      "elder": 4692,
      "insect": 4693,
      "apping": 4694,
      "cake": 4695,
      "tai": 4696,
      "abandon": 4697,
      "classic": 4698,
      "passes": 4699,
      "kins": 4700,
      "insur": 4701,
      "sustain": 4702,
      "institute": 4703,
      "mod": 4704,
      "computers": 4705,
      "passion": 4706,
      "containing": 4707,
      "!\"": 4708,
      "attacked": 4709,
      "dense": 4710,
      "studying": 4711,
      "entities": 4712,
      "weapons": 4713,
      "income": 4714,
      "gathered": 4715,
      "una": 4716,
      "contributed": 4717,
      "cream": 4718,
      "liked": 4719,
      "opens": 4720,
      "harris": 4721,
      "devices": 4722,
      "policies": 4723,
      "doors": 4724,
      "kings": 4725,
      "ighter": 4726,
      "joint": 4727,
      "crim": 4728,
      "employees": 4729,
      "creative": 4730,
      "split": 4731,
      "ari": 4732,
      "vania": 4733,
      "anny": 4734,
      "stable": 4735,
      "rd": 4736,
      "processes": 4737,
      "victims": 4738,
      "shut": 4739,
      "magnet": 4740,
      "prices": 4741,
      "owners": 4742,
      "consul": 4743,
      "theme": 4744,
      "ila": 4745,
      "relatively": 4746,
      "glu": 4747,
      "reduced": 4748,
      "nasty": 4749,
      "este": 4750,
      "successfully": 4751,
      "neighborhood": 4752,
      "illa": 4753,
      "chi": 4754,
      "soccer": 4755,
      "usa": 4756,
      "innov": 4757,
      "actors": 4758,
      "thrill": 4759,
      "crack": 4760,
      "stein": 4761,
      "gling": 4762,
      "communities": 4763,
      "bak": 4764,
      "highlight": 4765,
      "headquarters": 4766,
      "oldest": 4767,
      "visited": 4768,
      "myself": 4769,
      "weekend": 4770,
      "flattering": 4771,
      "reject": 4772,
      "broke": 4773,
      "thick": 4774,
      "scand": 4775,
      "bands": 4776,
      "flying": 4777,
      "politician": 4778,
      "realizes": 4779,
      "genetic": 4780,
      "bling": 4781,
      "mysterious": 4782,
      "teachers": 4783,
      "killer": 4784,
      "clinton": 4785,
      "stands": 4786,
      "entered": 4787,
      "valuable": 4788,
      "answered": 4789,
      "mult": 4790,
      "enters": 4791,
      "microsoft": 4792,
      "package": 4793,
      "hockey": 4794,
      "flag": 4795,
      "grammar": 4796,
      "org": 4797,
      "uct": 4798,
      "paragraphs": 4799,
      "lawyer": 4800,
      "carrying": 4801,
      "map": 4802,
      "brew": 4803,
      "decades": 4804,
      "andro": 4805,
      "disney": 4806,
      "eigh": 4807,
      "organic": 4808,
      "mum": 4809,
      "plus": 4810,
      "eric": 4811,
      "combination": 4812,
      "rev": 4813,
      "flood": 4814,
      "satell": 4815,
      "hell": 4816,
      "oles": 4817,
      "limit": 4818,
      "hint": 4819,
      "guidelines": 4820,
      "deli": 4821,
      "noted": 4822,
      "piano": 4823,
      "rian": 4824,
      "anc": 4825,
      "concern": 4826,
      "radiation": 4827,
      "conveys": 4828,
      "roots": 4829,
      "encies": 4830,
      "reaching": 4831,
      "practices": 4832,
      "rum": 4833,
      "genus": 4834,
      "kent": 4835,
      "andrew": 4836,
      "jersey": 4837,
      "initi": 4838,
      "monarch": 4839,
      "breaks": 4840,
      "figures": 4841,
      "techniques": 4842,
      "insufficient": 4843,
      "mathem": 4844,
      "challenge": 4845,
      "rible": 4846,
      "clock": 4847,
      "ads": 4848,
      "egg": 4849,
      "desert": 4850,
      "fu": 4851,
      "leon": 4852,
      "gment": 4853,
      "unfortunately": 4854,
      "grown": 4855,
      "sip": 4856,
      "seek": 4857,
      "dreams": 4858,
      "hidden": 4859,
      "tournam": 4860,
      "chosen": 4861,
      "nest": 4862,
      "survive": 4863,
      "arabic": 4864,
      "interests": 4865,
      "fame": 4866,
      "belongs": 4867,
      "arthur": 4868,
      "flower": 4869,
      "phen": 4870,
      "gon": 4871,
      "locks": 4872,
      "suicide": 4873,
      "cos": 4874,
      "ala": 4875,
      "ibility": 4876,
      "ethnic": 4877,
      "sony": 4878,
      "achel": 4879,
      "gases": 4880,
      "frame": 4881,
      "actual": 4882,
      "afternoon": 4883,
      "ensuring": 4884,
      "significantly": 4885,
      "tian": 4886,
      "extensive": 4887,
      "imate": 4888,
      "hollywood": 4889,
      "perspect": 4890,
      "passing": 4891,
      "gained": 4892,
      "mich": 4893,
      "helpful": 4894,
      "romantic": 4895,
      "maker": 4896,
      "decor": 4897,
      "represents": 4898,
      "vas": 4899,
      "vic": 4900,
      "divide": 4901,
      "route": 4902,
      "positions": 4903,
      "temperatures": 4904,
      "founder": 4905,
      "opposite": 4906,
      "rig": 4907,
      "columbia": 4908,
      "symptoms": 4909,
      "andy": 4910,
      "suppl": 4911,
      "pting": 4912,
      "rit": 4913,
      "amazing": 4914,
      "riding": 4915,
      "matches": 4916,
      "depth": 4917,
      "bread": 4918,
      "rence": 4919,
      "plastic": 4920,
      "ered": 4921,
      "cooking": 4922,
      "gate": 4923,
      "excited": 4924,
      "wound": 4925,
      "infr": 4926,
      "jesus": 4927,
      "script": 4928,
      "repl": 4929,
      "wheel": 4930,
      "foods": 4931,
      "wet": 4932,
      "itzer": 4933,
      "palace": 4934,
      "sper": 4935,
      "enem": 4936,
      "quant": 4937,
      "dv": 4938,
      "debate": 4939,
      "philipp": 4940,
      "vice": 4941,
      "circum": 4942,
      "rier": 4943,
      "flav": 4944,
      "controlled": 4945,
      "crowd": 4946,
      "derived": 4947,
      "lau": 4948,
      "poland": 4949,
      "concerned": 4950,
      "swimming": 4951,
      "kans": 4952,
      "fc": 4953,
      "assistant": 4954,
      "bie": 4955,
      "magic": 4956,
      "editor": 4957,
      "ulture": 4958,
      "chen": 4959,
      "retain": 4960,
      "organizations": 4961,
      "crisis": 4962,
      "fossil": 4963,
      "adjust": 4964,
      "formal": 4965,
      "sme": 4966,
      "okay": 4967,
      "instrument": 4968,
      "ero": 4969,
      "ingu": 4970,
      "busy": 4971,
      "meant": 4972,
      "closely": 4973,
      "malay": 4974,
      "emergency": 4975,
      "eur": 4976,
      "neutral": 4977,
      "cot": 4978,
      "styles": 4979,
      "capture": 4980,
      "beng": 4981,
      "strate": 4982,
      "losing": 4983,
      "prepared": 4984,
      "berlin": 4985,
      "resistance": 4986,
      "captured": 4987,
      "leadership": 4988,
      "conven": 4989,
      "locations": 4990,
      "accused": 4991,
      "unk": 4992,
      "raise": 4993,
      "hide": 4994,
      "blues": 4995,
      "jr": 4996,
      "tools": 4997,
      "phe": 4998,
      "expression": 4999,
      "ukrain": 5000,
      "enthus": 5001,
      "units": 5002,
      "marke": 5003,
      "deser": 5004,
      "wrest": 5005,
      "haven": 5006,
      "syria": 5007,
      "dra": 5008,
      "familiar": 5009,
      "represented": 5010,
      "mann": 5011,
      "steam": 5012,
      "proceed": 5013,
      "pus": 5014,
      "pennsyl": 5015,
      "manchester": 5016,
      "narrow": 5017,
      "refuses": 5018,
      "tho": 5019,
      "lyrics": 5020,
      "happiness": 5021,
      "walls": 5022,
      "travels": 5023,
      "excellent": 5024,
      "millions": 5025,
      "trail": 5026,
      "colors": 5027,
      "orial": 5028,
      "tip": 5029,
      "cia": 5030,
      "sixth": 5031,
      "concluded": 5032,
      "lakes": 5033,
      "situations": 5034,
      "fas": 5035,
      "fertil": 5036,
      "rip": 5037,
      "centuries": 5038,
      "responsibility": 5039,
      "uated": 5040,
      "giant": 5041,
      "projects": 5042,
      "manner": 5043,
      "jon": 5044,
      "indonesia": 5045,
      "mbly": 5046,
      "starr": 5047,
      "abor": 5048,
      "decisions": 5049,
      "bai": 5050,
      "jail": 5051,
      "stores": 5052,
      "medium": 5053,
      "assembly": 5054,
      "sort": 5055,
      "acceptable": 5056,
      "gender": 5057,
      "dishes": 5058,
      "shadow": 5059,
      "fict": 5060,
      "confirm": 5061,
      "hr": 5062,
      "watched": 5063,
      "forget": 5064,
      "riverside": 5065,
      "sels": 5066,
      "ros": 5067,
      "characteristics": 5068,
      "scar": 5069,
      "funny": 5070,
      "warning": 5071,
      "adventure": 5072,
      "shoes": 5073,
      "troops": 5074,
      "desk": 5075,
      "massa": 5076,
      "pull": 5077,
      "portugu": 5078,
      "lowest": 5079,
      "rescue": 5080,
      "doctors": 5081,
      "ec": 5082,
      "ologist": 5083,
      "reliable": 5084,
      "pent": 5085,
      "surprise": 5086,
      "teaching": 5087,
      "falling": 5088,
      "candidate": 5089,
      "inal": 5090,
      "kate": 5091,
      "iley": 5092,
      "plom": 5093,
      "sight": 5094,
      "compar": 5095,
      "rural": 5096,
      "olympic": 5097,
      "sus": 5098,
      "diseases": 5099,
      "discovery": 5100,
      "tea": 5101,
      "switch": 5102,
      "streets": 5103,
      "racing": 5104,
      "gie": 5105,
      "episode": 5106,
      "perman": 5107,
      "accepted": 5108,
      "furthermore": 5109,
      "jean": 5110,
      "tight": 5111,
      "saving": 5112,
      "nfl": 5113,
      "returning": 5114,
      "nutrients": 5115,
      "clothing": 5116,
      "olympics": 5117,
      "zes": 5118,
      "scor": 5119,
      "forming": 5120,
      "diplom": 5121,
      "pennsylvania": 5122,
      "friendship": 5123,
      "warming": 5124,
      "tests": 5125,
      "divor": 5126,
      "critics": 5127,
      "spokes": 5128,
      "negoti": 5129,
      "hits": 5130,
      "increasingly": 5131,
      "iding": 5132,
      "lux": 5133,
      "enn": 5134,
      "oul": 5135,
      "georgia": 5136,
      "ras": 5137,
      "tos": 5138,
      "injury": 5139,
      "pilot": 5140,
      "brings": 5141,
      "launched": 5142,
      "neither": 5143,
      "batt": 5144,
      "treated": 5145,
      "jesse": 5146,
      "cameron": 5147,
      "fab": 5148,
      "austin": 5149,
      "estate": 5150,
      "mall": 5151,
      "interpret": 5152,
      "sons": 5153,
      "functions": 5154,
      "opportunities": 5155,
      "factor": 5156,
      "horror": 5157,
      "jewish": 5158,
      "detective": 5159,
      "distingu": 5160,
      "wouldn": 5161,
      "walked": 5162,
      "trop": 5163,
      "volunte": 5164,
      "equival": 5165,
      "explore": 5166,
      "gay": 5167,
      "principal": 5168,
      "victoria": 5169,
      "profit": 5170,
      "instruments": 5171,
      "embr": 5172,
      "sab": 5173,
      "smooth": 5174,
      "gluco": 5175,
      "sale": 5176,
      "dynasty": 5177,
      "inspir": 5178,
      "shortly": 5179,
      "aret": 5180,
      "locked": 5181,
      "encourage": 5182,
      "humor": 5183,
      "theater": 5184,
      "paraphr": 5185,
      "structures": 5186,
      "intent": 5187,
      "cers": 5188,
      "storage": 5189,
      "feat": 5190,
      "duke": 5191,
      "maria": 5192,
      "universe": 5193,
      "towns": 5194,
      "repeated": 5195,
      "discusses": 5196,
      "occasion": 5197,
      "retired": 5198,
      "awarded": 5199,
      "rhyth": 5200,
      "aven": 5201,
      "signs": 5202,
      "ante": 5203,
      "confident": 5204,
      "neck": 5205,
      "adel": 5206,
      "stronger": 5207,
      "jerry": 5208,
      "finland": 5209,
      "drawn": 5210,
      "orange": 5211,
      "childhood": 5212,
      "attended": 5213,
      "scenes": 5214,
      "kevin": 5215,
      "alive": 5216,
      "lis": 5217,
      "melo": 5218,
      "alexander": 5219,
      "greenhouse": 5220,
      "banks": 5221,
      "strategy": 5222,
      "respectively": 5223,
      "mm": 5224,
      "convict": 5225,
      "injured": 5226,
      "portuguese": 5227,
      "realize": 5228,
      "traveling": 5229,
      "icing": 5230,
      "composition": 5231,
      "engaged": 5232,
      "themes": 5233,
      "assistance": 5234,
      "marry": 5235,
      "cleaning": 5236,
      "dollars": 5237,
      "advance": 5238,
      "glucose": 5239,
      "afghanistan": 5240,
      "confirmed": 5241,
      "massach": 5242,
      "ugh": 5243,
      "ulation": 5244,
      "boundaries": 5245,
      "capacity": 5246,
      "massachuse": 5247,
      "fishing": 5248,
      "susan": 5249,
      "illness": 5250,
      "kit": 5251,
      "alleged": 5252,
      "promote": 5253,
      "engineering": 5254,
      "stating": 5255,
      "carolina": 5256,
      "visitors": 5257,
      "patri": 5258,
      "dna": 5259,
      "gil": 5260,
      "ained": 5261,
      "pump": 5262,
      "gus": 5263,
      "specified": 5264,
      "wich": 5265,
      "arrang": 5266,
      "vous": 5267,
      "shaw": 5268,
      "engaging": 5269,
      "distribution": 5270,
      "santa": 5271,
      "kur": 5272,
      "norway": 5273,
      "mexican": 5274,
      "truly": 5275,
      "util": 5276,
      "relations": 5277,
      "ips": 5278,
      "cheap": 5279,
      "oted": 5280,
      "characterized": 5281,
      "anx": 5282,
      "contrad": 5283,
      "strip": 5284,
      "metres": 5285,
      "alice": 5286,
      "popularity": 5287,
      "investment": 5288,
      "shore": 5289,
      "passengers": 5290,
      "earned": 5291,
      "ingredients": 5292,
      "expans": 5293,
      "provinces": 5294,
      "layer": 5295,
      "guitarist": 5296,
      "indirectly": 5297,
      "disci": 5298,
      "leagues": 5299,
      "iments": 5300,
      "aire": 5301,
      "fictional": 5302,
      "hebrew": 5303,
      "tts": 5304,
      "shall": 5305,
      "obl": 5306,
      "musicians": 5307,
      "chemicals": 5308,
      "evolution": 5309,
      "audio": 5310,
      "alongside": 5311,
      "aux": 5312,
      "eattype": 5313,
      "observ": 5314,
      "loud": 5315,
      "ingly": 5316,
      "tel": 5317,
      "paint": 5318,
      "hire": 5319,
      "ales": 5320,
      "harmon": 5321,
      "wine": 5322,
      "experts": 5323,
      "prompt": 5324,
      "dynam": 5325,
      "adopted": 5326,
      "referring": 5327,
      "electro": 5328,
      "contributions": 5329,
      "massachusetts": 5330,
      "alo": 5331,
      "enses": 5332,
      "translates": 5333,
      "heads": 5334,
      "triple": 5335,
      "underground": 5336,
      "citizen": 5337,
      "selected": 5338,
      "assume": 5339,
      "scottish": 5340,
      "oon": 5341,
      "views": 5342,
      "michigan": 5343,
      "achieved": 5344,
      "cards": 5345,
      "bigger": 5346,
      "tren": 5347,
      "ule": 5348,
      "woods": 5349,
      "architecture": 5350,
      "soul": 5351,
      "reputation": 5352,
      "simon": 5353,
      "goods": 5354,
      "worse": 5355,
      "domestic": 5356,
      "destroyed": 5357,
      "application": 5358,
      "mous": 5359,
      "personality": 5360,
      "missed": 5361,
      "noticed": 5362,
      "phia": 5363,
      "dave": 5364,
      "treas": 5365,
      "orient": 5366,
      "cart": 5367,
      "elimin": 5368,
      "magn": 5369,
      "repair": 5370,
      "swedish": 5371,
      "infl": 5372,
      "yan": 5373,
      "incredi": 5374,
      "nba": 5375,
      "establishment": 5376,
      "bare": 5377,
      "collap": 5378,
      "download": 5379,
      "honey": 5380,
      "picked": 5381,
      "appointed": 5382,
      "classified": 5383,
      "tournament": 5384,
      "tube": 5385,
      "seasons": 5386,
      "platform": 5387,
      "ull": 5388,
      "nik": 5389,
      "legs": 5390,
      "extended": 5391,
      "worst": 5392,
      "settlement": 5393,
      "norm": 5394,
      "institutions": 5395,
      "acknowled": 5396,
      "roughly": 5397,
      "fbi": 5398,
      "eag": 5399,
      "variable": 5400,
      "estyle": 5401,
      "subjects": 5402,
      "investigate": 5403,
      "evil": 5404,
      "benefit": 5405,
      "destination": 5406,
      "wins": 5407,
      "rab": 5408,
      "denmark": 5409,
      "violent": 5410,
      "ulty": 5411,
      "selection": 5412,
      "stuff": 5413,
      "alty": 5414,
      "purposes": 5415,
      "afterwards": 5416,
      "apol": 5417,
      "isolate": 5418,
      "loves": 5419,
      "visiting": 5420,
      "outcome": 5421,
      "vietnam": 5422,
      "austria": 5423,
      "circumst": 5424,
      "mud": 5425,
      "bringing": 5426,
      "tennis": 5427,
      "ohio": 5428,
      "explo": 5429,
      "exter": 5430,
      "cob": 5431,
      "dent": 5432,
      "cous": 5433,
      "burning": 5434,
      "universal": 5435,
      "pub": 5436,
      "failure": 5437,
      "smoking": 5438,
      "titles": 5439,
      "businesses": 5440,
      "basis": 5441,
      "thetic": 5442,
      "td": 5443,
      "amazon": 5444,
      "existence": 5445,
      "committed": 5446,
      "producing": 5447,
      "iency": 5448,
      "certainly": 5449,
      "muscle": 5450,
      "neys": 5451,
      "rival": 5452,
      "asts": 5453,
      "expo": 5454,
      "kon": 5455,
      "regularly": 5456,
      "angel": 5457,
      "aqu": 5458,
      "ays": 5459,
      "struggle": 5460,
      "satellite": 5461,
      "exposed": 5462,
      "pig": 5463,
      "scope": 5464,
      "wars": 5465,
      "dir": 5466,
      "assass": 5467,
      "dating": 5468,
      "walks": 5469,
      "glas": 5470,
      "hopes": 5471,
      "agno": 5472,
      "regarded": 5473,
      "fired": 5474,
      "contemporary": 5475,
      "vehicles": 5476,
      "ania": 5477,
      "receiving": 5478,
      "diam": 5479,
      "poe": 5480,
      "modif": 5481,
      "ati": 5482,
      "kir": 5483,
      "combat": 5484,
      "coordin": 5485,
      "hunting": 5486,
      "sample": 5487,
      "drew": 5488,
      "thro": 5489,
      "ressing": 5490,
      "influential": 5491,
      "err": 5492,
      "ching": 5493,
      "corn": 5494,
      "emily": 5495,
      "asha": 5496,
      "ios": 5497,
      "reactions": 5498,
      "hai": 5499,
      "chap": 5500,
      "dropped": 5501,
      "surprised": 5502,
      "proto": 5503,
      "iro": 5504,
      "carib": 5505,
      "offensive": 5506,
      "josh": 5507,
      "bly": 5508,
      "electrical": 5509,
      "supports": 5510,
      "worried": 5511,
      "tact": 5512,
      "moore": 5513,
      "latter": 5514,
      "esh": 5515,
      "aints": 5516,
      "jess": 5517,
      "tap": 5518,
      "amy": 5519,
      "tired": 5520,
      "agriculture": 5521,
      "conducted": 5522,
      "muscles": 5523,
      "uncle": 5524,
      "technical": 5525,
      "gian": 5526,
      "loose": 5527,
      "lingu": 5528,
      "democrats": 5529,
      "matthe": 5530,
      "copies": 5531,
      "pc": 5532,
      "scientist": 5533,
      "wash": 5534,
      "rolling": 5535,
      "cutting": 5536,
      "sau": 5537,
      "dedicated": 5538,
      "confidence": 5539,
      "istry": 5540,
      "universities": 5541,
      "phenom": 5542,
      "hoping": 5543,
      "kay": 5544,
      "ension": 5545,
      "vegetables": 5546,
      "landscape": 5547,
      "inqu": 5548,
      "uous": 5549,
      "hydr": 5550,
      "wealthy": 5551,
      "keys": 5552,
      "bury": 5553,
      "mount": 5554,
      "resulted": 5555,
      "eve": 5556,
      "visits": 5557,
      "switzer": 5558,
      "disput": 5559,
      "disappointment": 5560,
      "hundreds": 5561,
      "driven": 5562,
      "cycling": 5563,
      "cafe": 5564,
      "survey": 5565,
      "monitor": 5566,
      "session": 5567,
      "ont": 5568,
      "walter": 5569,
      "cric": 5570,
      "ordinary": 5571,
      "sleeping": 5572,
      "priest": 5573,
      "favorable": 5574,
      "pulled": 5575,
      "commitment": 5576,
      "ien": 5577,
      "writers": 5578,
      "appeal": 5579,
      "schedul": 5580,
      "stro": 5581,
      "comparis": 5582,
      "burgh": 5583,
      "obvious": 5584,
      "disappointed": 5585,
      "intention": 5586,
      "optim": 5587,
      "nee": 5588,
      "dining": 5589,
      "creates": 5590,
      "archi": 5591,
      "pher": 5592,
      "ariz": 5593,
      "formula": 5594,
      "yu": 5595,
      "affairs": 5596,
      "tiny": 5597,
      "summit": 5598,
      "jimmy": 5599,
      "nich": 5600,
      "participants": 5601,
      "fund": 5602,
      "legend": 5603,
      "keeps": 5604,
      "switzerland": 5605,
      "iang": 5606,
      "mathemat": 5607,
      "heavily": 5608,
      "commander": 5609,
      "expectations": 5610,
      "enforce": 5611,
      "wonderful": 5612,
      "advanced": 5613,
      "survival": 5614,
      "readers": 5615,
      "organism": 5616,
      "receives": 5617,
      "harv": 5618,
      "belgium": 5619,
      "linked": 5620,
      "homa": 5621,
      "issued": 5622,
      "islamic": 5623,
      "ione": 5624,
      "manages": 5625,
      "pier": 5626,
      "kelly": 5627,
      "equivalent": 5628,
      "tropical": 5629,
      "remot": 5630,
      "affair": 5631,
      "diagno": 5632,
      "archipel": 5633,
      "sche": 5634,
      "seeds": 5635,
      "tood": 5636,
      "finger": 5637,
      "genres": 5638,
      "miller": 5639,
      "respir": 5640,
      "pill": 5641,
      "existing": 5642,
      "aded": 5643,
      "corrupt": 5644,
      "standards": 5645,
      "dancing": 5646,
      "explained": 5647,
      "caribbean": 5648,
      "ora": 5649,
      "makers": 5650,
      "substance": 5651,
      "rows": 5652,
      "desc": 5653,
      "flows": 5654,
      "destru": 5655,
      "conds": 5656,
      "medal": 5657,
      "dvd": 5658,
      "uge": 5659,
      "discipl": 5660,
      "featuring": 5661,
      "icer": 5662,
      "magma": 5663,
      "cooper": 5664,
      "nell": 5665,
      "taught": 5666,
      "insurance": 5667,
      "dick": 5668,
      "argent": 5669,
      "drinks": 5670,
      "blind": 5671,
      "wolf": 5672,
      "billboard": 5673,
      "yl": 5674,
      "harmful": 5675,
      "noise": 5676,
      "bottle": 5677,
      "handle": 5678,
      "foster": 5679,
      "keywords": 5680,
      "meters": 5681,
      "proced": 5682,
      "wilson": 5683,
      "extracted": 5684,
      "tough": 5685,
      "inois": 5686,
      "pton": 5687,
      "unlikely": 5688,
      "cine": 5689,
      "focuses": 5690,
      "volcano": 5691,
      "vocals": 5692,
      "inary": 5693,
      "adds": 5694,
      "bone": 5695,
      "heritage": 5696,
      "veter": 5697,
      "seconds": 5698,
      "winner": 5699,
      "guil": 5700,
      "cock": 5701,
      "hl": 5702,
      "bishop": 5703,
      "pink": 5704,
      "facility": 5705,
      "urb": 5706,
      "xture": 5707,
      "budd": 5708,
      "imper": 5709,
      "subsequent": 5710,
      "magnetic": 5711,
      "confront": 5712,
      "practical": 5713,
      "injuries": 5714,
      "listening": 5715,
      "acquired": 5716,
      "recommended": 5717,
      "cav": 5718,
      "improved": 5719,
      "gym": 5720,
      "click": 5721,
      "consistent": 5722,
      "rein": 5723,
      "subtract": 5724,
      "illinois": 5725,
      "sorry": 5726,
      "apparently": 5727,
      "factory": 5728,
      "rif": 5729,
      "decline": 5730,
      "comprehensive": 5731,
      "uten": 5732,
      "republicans": 5733,
      "hills": 5734,
      "tape": 5735,
      "phas": 5736,
      "guests": 5737,
      "typical": 5738,
      "register": 5739,
      "awa": 5740,
      "ieval": 5741,
      "introduction": 5742,
      "graduate": 5743,
      "erup": 5744,
      "sequence": 5745,
      "afraid": 5746,
      "videos": 5747,
      "federation": 5748,
      "evaluate": 5749,
      "physics": 5750,
      "dd": 5751,
      "ares": 5752,
      "upset": 5753,
      "calculate": 5754,
      "produces": 5755,
      "illegal": 5756,
      "flee": 5757,
      "frequency": 5758,
      "tank": 5759,
      "danny": 5760,
      "bern": 5761,
      "documents": 5762,
      "taiwan": 5763,
      "reducing": 5764,
      "circumstances": 5765,
      "restrict": 5766,
      "perce": 5767,
      "commonwealth": 5768,
      "understood": 5769,
      "breath": 5770,
      "update": 5771,
      "arian": 5772,
      "carl": 5773,
      "roads": 5774,
      "worry": 5775,
      "conservative": 5776,
      "proud": 5777,
      "placing": 5778,
      "renew": 5779,
      "franch": 5780,
      "promise": 5781,
      "synthesis": 5782,
      "ggling": 5783,
      "stomach": 5784,
      "grows": 5785,
      "hears": 5786,
      "historically": 5787,
      "myth": 5788,
      "expressing": 5789,
      "cable": 5790,
      "rational": 5791,
      "significance": 5792,
      "iat": 5793,
      "breakfast": 5794,
      "stephen": 5795,
      "suffered": 5796,
      "possibility": 5797,
      "ficiency": 5798,
      "municipal": 5799,
      "toys": 5800,
      "scul": 5801,
      "tasks": 5802,
      "larry": 5803,
      "philippines": 5804,
      "sheriff": 5805,
      "worker": 5806,
      "massive": 5807,
      "oppon": 5808,
      "arizona": 5809,
      "respond": 5810,
      "aggress": 5811,
      "narrative": 5812,
      "draft": 5813,
      "persony": 5814,
      "convert": 5815,
      "graphic": 5816,
      "jake": 5817,
      "chicken": 5818,
      "rie": 5819,
      "casey": 5820,
      "hatt": 5821,
      "ghost": 5822,
      "coastal": 5823,
      "circu": 5824,
      "abuse": 5825,
      "chocol": 5826,
      "assign": 5827,
      "reaches": 5828,
      "amin": 5829,
      "smoke": 5830,
      "recognition": 5831,
      "refused": 5832,
      "juris": 5833,
      "railway": 5834,
      "depicts": 5835,
      "android": 5836,
      "button": 5837,
      "territorial": 5838,
      "pages": 5839,
      "index": 5840,
      "bathroom": 5841,
      "vul": 5842,
      "migr": 5843,
      "supre": 5844,
      "container": 5845,
      "persu": 5846,
      "cuts": 5847,
      "housing": 5848,
      "reform": 5849,
      "expansion": 5850,
      "advoc": 5851,
      "elabor": 5852,
      "ideal": 5853,
      "wart": 5854,
      "chairman": 5855,
      "bullet": 5856,
      "drawing": 5857,
      "discussing": 5858,
      "hans": 5859,
      "sends": 5860,
      "iot": 5861,
      "encompass": 5862,
      "ista": 5863,
      "dust": 5864,
      "struggling": 5865,
      "arctica": 5866,
      "ongoing": 5867,
      "piz": 5868,
      "lifestyle": 5869,
      "immigration": 5870,
      "lers": 5871,
      "ani": 5872,
      "criteria": 5873,
      "moments": 5874,
      "medieval": 5875,
      "strike": 5876,
      "cats": 5877,
      "intr": 5878,
      "hone": 5879,
      "guilty": 5880,
      "supreme": 5881,
      "clin": 5882,
      "antarctica": 5883,
      "suffering": 5884,
      "andre": 5885,
      "informed": 5886,
      "starring": 5887,
      "defend": 5888,
      "whate": 5889,
      "nose": 5890,
      "sters": 5891,
      "aska": 5892,
      "debt": 5893,
      "relief": 5894,
      "density": 5895,
      "remote": 5896,
      "studios": 5897,
      "whatever": 5898,
      "comprises": 5899,
      "chat": 5900,
      "guine": 5901,
      "tub": 5902,
      "lists": 5903,
      "umb": 5904,
      "inet": 5905,
      "deeper": 5906,
      "constitu": 5907,
      "brook": 5908,
      "capable": 5909,
      "hemis": 5910,
      "spin": 5911,
      "cert": 5912,
      "opposition": 5913,
      "hunt": 5914,
      "matters": 5915,
      "campus": 5916,
      "okla": 5917,
      "tie": 5918,
      "briefly": 5919,
      "alphabet": 5920,
      "perspective": 5921,
      "react": 5922,
      "intel": 5923,
      "polar": 5924,
      "gray": 5925,
      "desper": 5926,
      "treaty": 5927,
      "wire": 5928,
      "abbreviated": 5929,
      "decade": 5930,
      "manufactur": 5931,
      "fantasy": 5932,
      "deput": 5933,
      "beck": 5934,
      "ruled": 5935,
      "solely": 5936,
      "symph": 5937,
      "carson": 5938,
      "titled": 5939,
      "plain": 5940,
      "invited": 5941,
      "spoke": 5942,
      "luc": 5943,
      "exercis": 5944,
      "clou": 5945,
      "inno": 5946,
      "invas": 5947,
      "atoms": 5948,
      "dict": 5949,
      "accidentally": 5950,
      "trait": 5951,
      "herent": 5952,
      "zu": 5953,
      "drag": 5954,
      "gab": 5955,
      "scow": 5956,
      "idae": 5957,
      "damaged": 5958,
      "hey": 5959,
      "illustr": 5960,
      "lisa": 5961,
      "delicious": 5962,
      "bourne": 5963,
      "happening": 5964,
      "stolen": 5965,
      "pressed": 5966,
      "messages": 5967,
      "accomplish": 5968,
      "deaths": 5969,
      "mia": 5970,
      "bears": 5971,
      "grapher": 5972,
      "seventh": 5973,
      "cambridge": 5974,
      "vibr": 5975,
      "dale": 5976,
      "pep": 5977,
      "criticism": 5978,
      "insects": 5979,
      "vacation": 5980,
      "therap": 5981,
      "gel": 5982,
      "rising": 5983,
      "removing": 5984,
      "tot": 5985,
      "forests": 5986,
      "shaped": 5987,
      "employment": 5988,
      "accepts": 5989,
      "glasses": 5990,
      "vy": 5991,
      "traits": 5992,
      "pole": 5993,
      "trigger": 5994,
      "recognize": 5995,
      "staying": 5996,
      "paying": 5997,
      "topics": 5998,
      "fought": 5999,
      "shorter": 6000,
      "gery": 6001,
      "wake": 6002,
      "pricer": 6003,
      "adelphia": 6004,
      "unlike": 6005,
      "emerged": 6006,
      "pricerange": 6007,
      "acce": 6008,
      "confron": 6009,
      "earthquake": 6010,
      "retire": 6011,
      "bulgar": 6012,
      "currency": 6013,
      "coat": 6014,
      "refuge": 6015,
      "facilities": 6016,
      "patterns": 6017,
      "ceremony": 6018,
      "sna": 6019,
      "igno": 6020,
      "protein": 6021,
      "depression": 6022,
      "ience": 6023,
      "philadelphia": 6024,
      "wick": 6025,
      "exposure": 6026,
      "unexpected": 6027,
      "pear": 6028,
      "orchestra": 6029,
      "purchased": 6030,
      "literary": 6031,
      "vow": 6032,
      "pod": 6033,
      "disc": 6034,
      "agents": 6035,
      "elections": 6036,
      "dressed": 6037,
      "bailey": 6038,
      "console": 6039,
      "lessons": 6040,
      "pope": 6041,
      "aine": 6042,
      "beer": 6043,
      "bicy": 6044,
      "immune": 6045,
      "acion": 6046,
      "prob": 6047,
      "navigate": 6048,
      "journalist": 6049,
      "icial": 6050,
      "stairs": 6051,
      "defeated": 6052,
      "weigh": 6053,
      "nin": 6054,
      "consciousness": 6055,
      "stood": 6056,
      "alien": 6057,
      "applications": 6058,
      "searching": 6059,
      "cig": 6060,
      "reign": 6061,
      "moscow": 6062,
      "teeth": 6063,
      "lia": 6064,
      "aar": 6065,
      "breed": 6066,
      "texts": 6067,
      "kinds": 6068,
      "cros": 6069,
      "emphasizes": 6070,
      "hart": 6071,
      "sax": 6072,
      "urally": 6073,
      "princess": 6074,
      "telephone": 6075,
      "urs": 6076,
      "trap": 6077,
      "abandoned": 6078,
      "saved": 6079,
      "ache": 6080,
      "ifts": 6081,
      "comparison": 6082,
      "alumin": 6083,
      "poet": 6084,
      "holy": 6085,
      "hut": 6086,
      "liberal": 6087,
      "maximum": 6088,
      "roof": 6089,
      "chose": 6090,
      "senator": 6091,
      "headed": 6092,
      "juni": 6093,
      "sla": 6094,
      "permanent": 6095,
      "lum": 6096,
      "aka": 6097,
      "puts": 6098,
      "pregnant": 6099,
      "passenger": 6100,
      "oty": 6101,
      "involvement": 6102,
      "para": 6103,
      "hunter": 6104,
      "ranked": 6105,
      "grammatically": 6106,
      "mixture": 6107,
      "nifer": 6108,
      "wol": 6109,
      "patch": 6110,
      "exped": 6111,
      "recru": 6112,
      "howard": 6113,
      "unitary": 6114,
      "poem": 6115,
      "nbc": 6116,
      "moist": 6117,
      "marit": 6118,
      "reader": 6119,
      "oo": 6120,
      "parish": 6121,
      "counties": 6122,
      "arrival": 6123,
      "comics": 6124,
      "grace": 6125,
      "dat": 6126,
      "protected": 6127,
      "iary": 6128,
      "beliefs": 6129,
      "prosecut": 6130,
      "mystery": 6131,
      "rin": 6132,
      "patrick": 6133,
      "calm": 6134,
      "oceans": 6135,
      "hydrogen": 6136,
      "bedroom": 6137,
      "crown": 6138,
      "adm": 6139,
      "depends": 6140,
      "plates": 6141,
      "updated": 6142,
      "consisting": 6143,
      "percentage": 6144,
      "ativity": 6145,
      "oklahoma": 6146,
      "granted": 6147,
      "signal": 6148,
      "representatives": 6149,
      "challenging": 6150,
      "communicate": 6151,
      "quinn": 6152,
      "jennifer": 6153,
      "sharp": 6154,
      "testing": 6155,
      "udes": 6156,
      "glac": 6157,
      "exciting": 6158,
      "mask": 6159,
      "fisher": 6160,
      "depos": 6161,
      "hindi": 6162,
      "declared": 6163,
      "males": 6164,
      "gradually": 6165,
      "trapped": 6166,
      "kal": 6167,
      "stations": 6168,
      "concentration": 6169,
      "assault": 6170,
      "entering": 6171,
      "shift": 6172,
      "hired": 6173,
      "craw": 6174,
      "mant": 6175,
      "chant": 6176,
      "preceding": 6177,
      "minerals": 6178,
      "icted": 6179,
      "aria": 6180,
      "oto": 6181,
      "accounts": 6182,
      "gentle": 6183,
      "christop": 6184,
      "smell": 6185,
      "eighth": 6186,
      "vital": 6187,
      "lone": 6188,
      "agu": 6189,
      "ams": 6190,
      "greatly": 6191,
      "demands": 6192,
      "elderly": 6193,
      "intense": 6194,
      "highway": 6195,
      "scholar": 6196,
      "akh": 6197,
      "communications": 6198,
      "drives": 6199,
      "subsequently": 6200,
      "aming": 6201,
      "wides": 6202,
      "brush": 6203,
      "guinea": 6204,
      "degre": 6205,
      "mode": 6206,
      "stun": 6207,
      "infection": 6208,
      "smile": 6209,
      "defeat": 6210,
      "rachel": 6211,
      "semi": 6212,
      "vampire": 6213,
      "rugby": 6214,
      "vince": 6215,
      "jin": 6216,
      "philosophy": 6217,
      "daw": 6218,
      "shell": 6219,
      "shelter": 6220,
      "warner": 6221,
      "accuracy": 6222,
      "cement": 6223,
      "inction": 6224,
      "centers": 6225,
      "pure": 6226,
      "funding": 6227,
      "toronto": 6228,
      "gotten": 6229,
      "tore": 6230,
      "stere": 6231,
      "pray": 6232,
      "vegas": 6233,
      "dic": 6234,
      "appreciate": 6235,
      "models": 6236,
      "dramatic": 6237,
      "machines": 6238,
      "pson": 6239,
      "constantly": 6240,
      "erosion": 6241,
      "admir": 6242,
      "cave": 6243,
      "degrees": 6244,
      "stim": 6245,
      "assigned": 6246,
      "cinema": 6247,
      "apolog": 6248,
      "pete": 6249,
      "newly": 6250,
      "marketing": 6251,
      "enforcement": 6252,
      "trave": 6253,
      "simplify": 6254,
      "tracy": 6255,
      "ancest": 6256,
      "carto": 6257,
      "kend": 6258,
      "kansas": 6259,
      "neighbour": 6260,
      "terrible": 6261,
      "requirements": 6262,
      "romance": 6263,
      "grat": 6264,
      "ancy": 6265,
      "twel": 6266,
      "mood": 6267,
      "ady": 6268,
      "preparing": 6269,
      "compete": 6270,
      "align": 6271,
      "controversi": 6272,
      "otto": 6273,
      "ticket": 6274,
      "soldier": 6275,
      "mars": 6276,
      "laid": 6277,
      "amounts": 6278,
      "subsid": 6279,
      "labour": 6280,
      "releases": 6281,
      "chamber": 6282,
      "clay": 6283,
      "thorough": 6284,
      "archipelago": 6285,
      "bee": 6286,
      "phere": 6287,
      "ique": 6288,
      "harder": 6289,
      "gravity": 6290,
      "oz": 6291,
      "normally": 6292,
      "realized": 6293,
      "counters": 6294,
      "boards": 6295,
      "transition": 6296,
      "artistic": 6297,
      "layers": 6298,
      "biological": 6299,
      "periods": 6300,
      "icul": 6301,
      "albert": 6302,
      "minnes": 6303,
      "mere": 6304,
      "bris": 6305,
      "parks": 6306,
      "ivan": 6307,
      "markets": 6308,
      "lasting": 6309,
      "superi": 6310,
      "matthew": 6311,
      "flex": 6312,
      "abol": 6313,
      "ukraine": 6314,
      "temple": 6315,
      "chocolate": 6316,
      "impressive": 6317,
      "teenagers": 6318,
      "governments": 6319,
      "christopher": 6320,
      "carries": 6321,
      "preferences": 6322,
      "neu": 6323,
      "naturally": 6324,
      "root": 6325,
      "surviv": 6326,
      "berry": 6327,
      "talented": 6328,
      "jet": 6329,
      "zard": 6330,
      "movements": 6331,
      "lig": 6332,
      "flies": 6333,
      "geographical": 6334,
      "strategic": 6335,
      "houston": 6336,
      "aki": 6337,
      "ee": 6338,
      "fuels": 6339,
      "inations": 6340,
      "meanings": 6341,
      "whel": 6342,
      "bian": 6343,
      "charts": 6344,
      "feedback": 6345,
      "routine": 6346,
      "surgery": 6347,
      "cheese": 6348,
      "peak": 6349,
      "athy": 6350,
      "hors": 6351,
      "mile": 6352,
      "restaurants": 6353,
      "detro": 6354,
      "zam": 6355,
      "dal": 6356,
      "lean": 6357,
      "ental": 6358,
      "maritime": 6359,
      "parliamentary": 6360,
      "detroit": 6361,
      "recordings": 6362,
      "seattle": 6363,
      "bags": 6364,
      "mone": 6365,
      "paraphrases": 6366,
      "widespread": 6367,
      "colog": 6368,
      "ivia": 6369,
      "welcome": 6370,
      "morgan": 6371,
      "guns": 6372,
      "suggesting": 6373,
      "tips": 6374,
      "operated": 6375,
      "stored": 6376,
      "anni": 6377,
      "unless": 6378,
      "nurse": 6379,
      "opposed": 6380,
      "convention": 6381,
      "deter": 6382,
      "athen": 6383,
      "biography": 6384,
      "unusual": 6385,
      "solutions": 6386,
      "trick": 6387,
      "anthony": 6388,
      "cuis": 6389,
      "maid": 6390,
      "laura": 6391,
      "controversial": 6392,
      "circuit": 6393,
      "minnesota": 6394,
      "struggles": 6395,
      "enna": 6396,
      "apers": 6397,
      "remark": 6398,
      "kilo": 6399,
      "edition": 6400,
      "iveness": 6401,
      "eq": 6402,
      "rebel": 6403,
      "shang": 6404,
      "ilton": 6405,
      "hawa": 6406,
      "chemistry": 6407,
      "excite": 6408,
      "nervous": 6409,
      "coln": 6410,
      "breathing": 6411,
      "external": 6412,
      "bruce": 6413,
      "allen": 6414,
      "genes": 6415,
      "memories": 6416,
      "joining": 6417,
      "lucy": 6418,
      "cant": 6419,
      "oliver": 6420,
      "lewis": 6421,
      "densely": 6422,
      "knif": 6423,
      "anno": 6424,
      "tale": 6425,
      "reporter": 6426,
      "funds": 6427,
      "odd": 6428,
      "buried": 6429,
      "lincoln": 6430,
      "negatively": 6431,
      "cliff": 6432,
      "igen": 6433,
      "ller": 6434,
      "kilome": 6435,
      "render": 6436,
      "missis": 6437,
      "seriously": 6438,
      "observed": 6439,
      "dying": 6440,
      "nationality": 6441,
      "upcoming": 6442,
      "impressed": 6443,
      "articles": 6444,
      "choo": 6445,
      "addis": 6446,
      "visible": 6447,
      "tha": 6448,
      "outs": 6449,
      "caps": 6450,
      "collected": 6451,
      "retail": 6452,
      "chase": 6453,
      "finance": 6454,
      "thy": 6455,
      "mals": 6456,
      "immediate": 6457,
      "doubt": 6458,
      "sending": 6459,
      "aham": 6460,
      "smallest": 6461,
      "supporters": 6462,
      "attending": 6463,
      "literally": 6464,
      "insist": 6465,
      "retr": 6466,
      "delivered": 6467,
      "revenue": 6468,
      "definitive": 6469,
      "honest": 6470,
      "remy": 6471,
      "vessels": 6472,
      "consumption": 6473,
      "virt": 6474,
      "prus": 6475,
      "bees": 6476,
      "sought": 6477,
      "twin": 6478,
      "cinem": 6479,
      "cm": 6480,
      "lessly": 6481,
      "sculpt": 6482,
      "duty": 6483,
      "isle": 6484,
      "manhatt": 6485,
      "attempting": 6486,
      "knife": 6487,
      "backs": 6488,
      "southeastern": 6489,
      "programming": 6490,
      "stic": 6491,
      "divisions": 6492,
      "lion": 6493,
      "cler": 6494,
      "manhattan": 6495,
      "files": 6496,
      "autonom": 6497,
      "reluct": 6498,
      "seats": 6499,
      "proteins": 6500,
      "settled": 6501,
      "ilit": 6502,
      "earning": 6503,
      "farmer": 6504,
      "reflects": 6505,
      "colorado": 6506,
      "random": 6507,
      "soap": 6508,
      "mississip": 6509,
      "positively": 6510,
      "miami": 6511,
      "originated": 6512,
      "orbit": 6513,
      "tied": 6514,
      "threw": 6515,
      "stops": 6516,
      "delay": 6517,
      "hurric": 6518,
      "raw": 6519,
      "rol": 6520,
      "fixed": 6521,
      "dividing": 6522,
      "memorial": 6523,
      "dirty": 6524,
      "pleasant": 6525,
      "nights": 6526,
      "stab": 6527,
      "lieuten": 6528,
      "elaborate": 6529,
      "bones": 6530,
      "assem": 6531,
      "fundam": 6532,
      "trag": 6533,
      "hob": 6534,
      "yeah": 6535,
      "armen": 6536,
      "mouse": 6537,
      "excitement": 6538,
      "employed": 6539,
      "plaus": 6540,
      "colleg": 6541,
      "bou": 6542,
      "pounds": 6543,
      "tommy": 6544,
      "enemy": 6545,
      "irts": 6546,
      "communist": 6547,
      "junior": 6548,
      "struck": 6549,
      "otes": 6550,
      "tum": 6551,
      "allies": 6552,
      "blank": 6553,
      "grab": 6554,
      "infras": 6555,
      "celebrate": 6556,
      "shock": 6557,
      "rocky": 6558,
      "confess": 6559,
      "candidates": 6560,
      "trained": 6561,
      "owns": 6562,
      "menu": 6563,
      "representative": 6564,
      "davis": 6565,
      "barry": 6566,
      "mississippi": 6567,
      "dealing": 6568,
      "guar": 6569,
      "dissatisfied": 6570,
      "barbar": 6571,
      "familyfriendly": 6572,
      "hemisphere": 6573,
      "wright": 6574,
      "usal": 6575,
      "server": 6576,
      "nucle": 6577,
      "trav": 6578,
      "admitted": 6579,
      "khan": 6580,
      "amb": 6581,
      "versions": 6582,
      "heim": 6583,
      "regardless": 6584,
      "archae": 6585,
      "downtown": 6586,
      "sisters": 6587,
      "gae": 6588,
      "promoting": 6589,
      "blan": 6590,
      "sector": 6591,
      "tooth": 6592,
      "forever": 6593,
      "hence": 6594,
      "opinions": 6595,
      "tennes": 6596,
      "seal": 6597,
      "distributed": 6598,
      "revenge": 6599,
      "ruth": 6600,
      "charlot": 6601,
      "azy": 6602,
      "accus": 6603,
      "discussion": 6604,
      "polis": 6605,
      "aluminum": 6606,
      "bure": 6607,
      "founding": 6608,
      "guys": 6609,
      "guid": 6610,
      "risks": 6611,
      "lith": 6612,
      "profile": 6613,
      "franchise": 6614,
      "diversity": 6615,
      "sasha": 6616,
      "punish": 6617,
      "chlor": 6618,
      "supplies": 6619,
      "acles": 6620,
      "instrumental": 6621,
      "dean": 6622,
      "mammals": 6623,
      "ml": 6624,
      "icon": 6625,
      "valent": 6626,
      "substant": 6627,
      "interior": 6628,
      "angers": 6629,
      "basin": 6630,
      "imperial": 6631,
      "wooden": 6632,
      "lucky": 6633,
      "combining": 6634,
      "ologies": 6635,
      "tast": 6636,
      "infected": 6637,
      "horses": 6638,
      "drain": 6639,
      "successor": 6640,
      "automatic": 6641,
      "championships": 6642,
      "iest": 6643,
      "tennessee": 6644,
      "yang": 6645,
      "attributes": 6646,
      "blog": 6647,
      "crust": 6648,
      "accompan": 6649,
      "entr": 6650,
      "favour": 6651,
      "documentary": 6652,
      "incorporated": 6653,
      "seed": 6654,
      "odi": 6655,
      "unclear": 6656,
      "affil": 6657,
      "cuisine": 6658,
      "anthro": 6659,
      "esta": 6660,
      "justin": 6661,
      "employee": 6662,
      "wildlife": 6663,
      "prey": 6664,
      "experiencing": 6665,
      "shi": 6666,
      "comprising": 6667,
      "hamp": 6668,
      "credited": 6669,
      "habitat": 6670,
      "entry": 6671,
      "somewhat": 6672,
      "mechanical": 6673,
      "absolutely": 6674,
      "aga": 6675,
      "nint": 6676,
      "leton": 6677,
      "moderate": 6678,
      "cture": 6679,
      "gur": 6680,
      "nev": 6681,
      "proof": 6682,
      "deeply": 6683,
      "attitude": 6684,
      "dj": 6685,
      "nintendo": 6686,
      "shots": 6687,
      "devast": 6688,
      "ux": 6689,
      "careful": 6690,
      "chol": 6691,
      "legislation": 6692,
      "choosing": 6693,
      "ptions": 6694,
      "distract": 6695,
      "cater": 6696,
      "bott": 6697,
      "crimes": 6698,
      "repeat": 6699,
      "marg": 6700,
      "uss": 6701,
      "approval": 6702,
      "bobby": 6703,
      "reproduction": 6704,
      "counsel": 6705,
      "tong": 6706,
      "eda": 6707,
      "casual": 6708,
      "een": 6709,
      "astron": 6710,
      "circle": 6711,
      "blocks": 6712,
      "heating": 6713,
      "vation": 6714,
      "testament": 6715,
      "eleph": 6716,
      "scheduled": 6717,
      "pursue": 6718,
      "vor": 6719,
      "evolved": 6720,
      "solved": 6721,
      "limits": 6722,
      "rogen": 6723,
      "colour": 6724,
      "attempted": 6725,
      "absence": 6726,
      "clip": 6727,
      "rhythm": 6728,
      "stayed": 6729,
      "kh": 6730,
      "ecosystem": 6731,
      "infrastru": 6732,
      "brut": 6733,
      "portug": 6734,
      "kom": 6735,
      "abul": 6736,
      "crete": 6737,
      "stability": 6738,
      "inity": 6739,
      "bis": 6740,
      "jumping": 6741,
      "deputy": 6742,
      "glad": 6743,
      "bust": 6744,
      "bloodstream": 6745,
      "leans": 6746,
      "ington": 6747,
      "diego": 6748,
      "battery": 6749,
      "witnesses": 6750,
      "eva": 6751,
      "democracy": 6752,
      "osa": 6753,
      "oke": 6754,
      "hyper": 6755,
      "sensitive": 6756,
      "writes": 6757,
      "ague": 6758,
      "cope": 6759,
      "indiana": 6760,
      "murdered": 6761,
      "appearances": 6762,
      "sweat": 6763,
      "squad": 6764,
      "networks": 6765,
      "oral": 6766,
      "balan": 6767,
      "cultures": 6768,
      "aired": 6769,
      "iders": 6770,
      "corresponding": 6771,
      "rober": 6772,
      "niture": 6773,
      "lasted": 6774,
      "kai": 6775,
      "coherent": 6776,
      "geographic": 6777,
      "engineer": 6778,
      "frequent": 6779,
      "michel": 6780,
      "bach": 6781,
      "orph": 6782,
      "fet": 6783,
      "dall": 6784,
      "golf": 6785,
      "itis": 6786,
      "parking": 6787,
      "grey": 6788,
      "enzy": 6789,
      "acted": 6790,
      "frustration": 6791,
      "whis": 6792,
      "tourists": 6793,
      "arena": 6794,
      "egyp": 6795,
      "autonomous": 6796,
      "schedule": 6797,
      "drummer": 6798,
      "mistake": 6799,
      "desired": 6800,
      "consult": 6801,
      "furniture": 6802,
      "swiss": 6803,
      "discussed": 6804,
      "connections": 6805,
      "lieutenant": 6806,
      "advertising": 6807,
      "ogy": 6808,
      "encounters": 6809,
      "legacy": 6810,
      "bills": 6811,
      "crops": 6812,
      "promised": 6813,
      "attracted": 6814,
      "accompanied": 6815,
      "header": 6816,
      "animated": 6817,
      "overseas": 6818,
      "slip": 6819,
      "manip": 6820,
      "aimed": 6821,
      "bounded": 6822,
      "rush": 6823,
      "panic": 6824,
      "balls": 6825,
      "pse": 6826,
      "posing": 6827,
      "rocket": 6828,
      "weapon": 6829,
      "hook": 6830,
      "auth": 6831,
      "voters": 6832,
      "publication": 6833,
      "pizza": 6834,
      "adject": 6835,
      "lawrence": 6836,
      "jona": 6837,
      "delivery": 6838,
      "icians": 6839,
      "ivals": 6840,
      "client": 6841,
      "keeper": 6842,
      "broadcasting": 6843,
      "kis": 6844,
      "yester": 6845,
      "funer": 6846,
      "phase": 6847,
      "iva": 6848,
      "productive": 6849,
      "designated": 6850,
      "tario": 6851,
      "marie": 6852,
      "dear": 6853,
      "poison": 6854,
      "traditionally": 6855,
      "singap": 6856,
      "steven": 6857,
      "thrown": 6858,
      "abad": 6859,
      "cousin": 6860,
      "nazi": 6861,
      "buddy": 6862,
      "meals": 6863,
      "destruction": 6864,
      "intellect": 6865,
      "acle": 6866,
      "posted": 6867,
      "neil": 6868,
      "sink": 6869,
      "lover": 6870,
      "jonathan": 6871,
      "singapore": 6872,
      "accom": 6873,
      "oks": 6874,
      "naval": 6875,
      "fruits": 6876,
      "courage": 6877,
      "viewers": 6878,
      "ein": 6879,
      "decreases": 6880,
      "populations": 6881,
      "circul": 6882,
      "yesterday": 6883,
      "ontario": 6884,
      "resolution": 6885,
      "offices": 6886,
      "sne": 6887,
      "identifying": 6888,
      "charlotte": 6889,
      "sha": 6890,
      "industries": 6891,
      "aller": 6892,
      "nels": 6893,
      "cole": 6894,
      "somewhere": 6895,
      "inhab": 6896,
      "prot": 6897,
      "colleagues": 6898,
      "attractive": 6899,
      "leaf": 6900,
      "chel": 6901,
      "extent": 6902,
      "milit": 6903,
      "ceo": 6904,
      "attached": 6905,
      "contained": 6906,
      "exceptional": 6907,
      "sean": 6908,
      "quote": 6909,
      "das": 6910,
      "vak": 6911,
      "concise": 6912,
      "mini": 6913,
      "istical": 6914,
      "stuck": 6915,
      "compound": 6916,
      "ateful": 6917,
      "gates": 6918,
      "rapidly": 6919,
      "ulu": 6920,
      "overwhel": 6921,
      "aer": 6922,
      "vet": 6923,
      "lennon": 6924,
      "ruling": 6925,
      "handed": 6926,
      "pled": 6927,
      "superior": 6928,
      "enthusias": 6929,
      "rav": 6930,
      "nand": 6931,
      "nah": 6932,
      "dil": 6933,
      "lide": 6934,
      "arranged": 6935,
      "oak": 6936,
      "wayne": 6937,
      "invasion": 6938,
      "expanded": 6939,
      "component": 6940,
      "cryst": 6941,
      "estone": 6942,
      "garage": 6943,
      "mers": 6944,
      "drove": 6945,
      "enjoyable": 6946,
      "pets": 6947,
      "enhan": 6948,
      "torn": 6949,
      "whit": 6950,
      "aj": 6951,
      "hatch": 6952,
      "talked": 6953,
      "carter": 6954,
      "spark": 6955,
      "tickets": 6956,
      "overcome": 6957,
      "conce": 6958,
      "clouds": 6959,
      "infrastructure": 6960,
      "iant": 6961,
      "twelve": 6962,
      "retrie": 6963,
      "obst": 6964,
      "robber": 6965,
      "aya": 6966,
      "occasionally": 6967,
      "fires": 6968,
      "residence": 6969,
      "substances": 6970,
      "bureau": 6971,
      "hiding": 6972,
      "error": 6973,
      "tier": 6974,
      "technique": 6975,
      "zero": 6976,
      "acre": 6977,
      "outdoor": 6978,
      "starred": 6979,
      "fifteen": 6980,
      "representing": 6981,
      "completing": 6982,
      "yers": 6983,
      "terry": 6984,
      "bart": 6985,
      "pattern": 6986,
      "oxford": 6987,
      "photosynthesis": 6988,
      "fried": 6989,
      "throwing": 6990,
      "audiences": 6991,
      "claiming": 6992,
      "trading": 6993,
      "deals": 6994,
      "participate": 6995,
      "monu": 6996,
      "businessman": 6997,
      "renow": 6998,
      "tered": 6999,
      "introduce": 7000,
      "jessica": 7001,
      "evapor": 7002,
      "det": 7003,
      "lift": 7004,
      "rally": 7005,
      "swi": 7006,
      "voy": 7007,
      "dedication": 7008,
      "grandmother": 7009,
      "improvement": 7010,
      "resort": 7011,
      "kyo": 7012,
      "ministry": 7013,
      "kidn": 7014,
      "nt": 7015,
      "determination": 7016,
      "dess": 7017,
      "inches": 7018,
      "spokesman": 7019,
      "affects": 7020,
      "uncertain": 7021,
      "gill": 7022,
      "processing": 7023,
      "focusing": 7024,
      "estine": 7025,
      "caption": 7026,
      "cloud": 7027,
      "oy": 7028,
      "outer": 7029,
      "districts": 7030,
      "interpretation": 7031,
      "reads": 7032,
      "rises": 7033,
      "bull": 7034,
      "creatures": 7035,
      "competitive": 7036,
      "raising": 7037,
      "paintings": 7038,
      "recovery": 7039,
      "rud": 7040,
      "wre": 7041,
      "classification": 7042,
      "thirty": 7043,
      "examine": 7044,
      "episodes": 7045,
      "kendall": 7046,
      "tat": 7047,
      "conventional": 7048,
      "sung": 7049,
      "controls": 7050,
      "nett": 7051,
      "anticip": 7052,
      "hugh": 7053,
      "awak": 7054,
      "novels": 7055,
      "agricul": 7056,
      "dylan": 7057,
      "delight": 7058,
      "cathe": 7059,
      "dissatisfaction": 7060,
      "strait": 7061,
      "morrow": 7062,
      "tense": 7063,
      "lope": 7064,
      "aunt": 7065,
      "riley": 7066,
      "celtic": 7067,
      "fits": 7068,
      "healthcare": 7069,
      "htt": 7070,
      "occupied": 7071,
      "entre": 7072,
      "expedition": 7073,
      "bos": 7074,
      "beatles": 7075,
      "iate": 7076,
      "teenage": 7077,
      "governing": 7078,
      "enix": 7079,
      "ulated": 7080,
      "burned": 7081,
      "similarly": 7082,
      "tin": 7083,
      "grounds": 7084,
      "shanghai": 7085,
      "scoring": 7086,
      "personnel": 7087,
      "hann": 7088,
      "cra": 7089,
      "shoots": 7090,
      "junction": 7091,
      "hub": 7092,
      "cbs": 7093,
      "addison": 7094,
      "raf": 7095,
      "nobody": 7096,
      "roger": 7097,
      "dirt": 7098,
      "atomic": 7099,
      "steal": 7100,
      "auf": 7101,
      "paralle": 7102,
      "loan": 7103,
      "playstation": 7104,
      "fortune": 7105,
      "mour": 7106,
      "divorce": 7107,
      "secondary": 7108,
      "animation": 7109,
      "ranking": 7110,
      "icop": 7111,
      "everyday": 7112,
      "lane": 7113,
      "indication": 7114,
      "enh": 7115,
      "publisher": 7116,
      "denied": 7117,
      "pover": 7118,
      "pione": 7119,
      "sessions": 7120,
      "mos": 7121,
      "stig": 7122,
      "xbox": 7123,
      "cuba": 7124,
      "broader": 7125,
      "croat": 7126,
      "shops": 7127,
      "fallen": 7128,
      "designer": 7129,
      "tile": 7130,
      "hud": 7131,
      "frag": 7132,
      "potato": 7133,
      "pipe": 7134,
      "anderson": 7135,
      "avia": 7136,
      "inser": 7137,
      "istol": 7138,
      "nichol": 7139,
      "cricket": 7140,
      "rationale": 7141,
      "resem": 7142,
      "footballer": 7143,
      "oven": 7144,
      "renowned": 7145,
      "mirror": 7146,
      "consumer": 7147,
      "wen": 7148,
      "apples": 7149,
      "itz": 7150,
      "sail": 7151,
      "sciences": 7152,
      "hiv": 7153,
      "phill": 7154,
      "apt": 7155,
      "manufacturing": 7156,
      "neur": 7157,
      "efficiency": 7158,
      "plenty": 7159,
      "spar": 7160,
      "celebrated": 7161,
      "conflicts": 7162,
      "adapted": 7163,
      "kas": 7164,
      "therine": 7165,
      "principles": 7166,
      "argue": 7167,
      "hampshire": 7168,
      "traditions": 7169,
      "silent": 7170,
      "nepal": 7171,
      "alliance": 7172,
      "izer": 7173,
      "fluid": 7174,
      "traged": 7175,
      "aa": 7176,
      "eddie": 7177,
      "disaster": 7178,
      "biology": 7179,
      "nold": 7180,
      "hello": 7181,
      "sts": 7182,
      "jung": 7183,
      "delta": 7184,
      "vincent": 7185,
      "dominant": 7186,
      "spher": 7187,
      "ridge": 7188,
      "strengthen": 7189,
      "rass": 7190,
      "agricultural": 7191,
      "payment": 7192,
      "emen": 7193,
      "colom": 7194,
      "homework": 7195,
      "partnership": 7196,
      "liby": 7197,
      "gallery": 7198,
      "phenomen": 7199,
      "bind": 7200,
      "wider": 7201,
      "annie": 7202,
      "strongly": 7203,
      "neighbors": 7204,
      "newspapers": 7205,
      "threatened": 7206,
      "agonist": 7207,
      "norman": 7208,
      "amend": 7209,
      "crazy": 7210,
      "evident": 7211,
      "household": 7212,
      "mining": 7213,
      "fungi": 7214,
      "swing": 7215,
      "convinced": 7216,
      "douglas": 7217,
      "managing": 7218,
      "gathering": 7219,
      "difficulty": 7220,
      "constructed": 7221,
      "races": 7222,
      "bible": 7223,
      "diamond": 7224,
      "jacob": 7225,
      "flavor": 7226,
      "funeral": 7227,
      "anned": 7228,
      "findings": 7229,
      "publishing": 7230,
      "absorbed": 7231,
      "helicop": 7232,
      "tery": 7233,
      "refr": 7234,
      "alam": 7235,
      "gap": 7236,
      "clause": 7237,
      "nag": 7238,
      "leo": 7239,
      "till": 7240,
      "availability": 7241,
      "asle": 7242,
      "tissue": 7243,
      "tokyo": 7244,
      "alab": 7245,
      "advertise": 7246,
      "ucky": 7247,
      "vocalist": 7248,
      "kilometers": 7249,
      "continuous": 7250,
      "serge": 7251,
      "electrons": 7252,
      "freder": 7253,
      "sally": 7254,
      "genu": 7255,
      "escapes": 7256,
      "precise": 7257,
      "possession": 7258,
      "aced": 7259,
      "habits": 7260,
      "clark": 7261,
      "inch": 7262,
      "cabinet": 7263,
      "succeeded": 7264,
      "ifications": 7265,
      "washer": 7266,
      "outstanding": 7267,
      "specialized": 7268,
      "corporate": 7269,
      "eleven": 7270,
      "pace": 7271,
      "nad": 7272,
      "zim": 7273,
      "generations": 7274,
      "moreover": 7275,
      "mistakes": 7276,
      "agencies": 7277,
      "burns": 7278,
      "bugs": 7279,
      "jurisdiction": 7280,
      "nevada": 7281,
      "pocket": 7282,
      "approaches": 7283,
      "sudan": 7284,
      "wanting": 7285,
      "farmers": 7286,
      "loop": 7287,
      "landing": 7288,
      "singular": 7289,
      "distinguished": 7290,
      "boun": 7291,
      "pancre": 7292,
      "crush": 7293,
      "enhance": 7294,
      "guards": 7295,
      "acks": 7296,
      "classroom": 7297,
      "coastline": 7298,
      "norwe": 7299,
      "ups": 7300,
      "bicycle": 7301,
      "unrelated": 7302,
      "watches": 7303,
      "roc": 7304,
      "nitrogen": 7305,
      "puzz": 7306,
      "ailand": 7307,
      "consumers": 7308,
      "drunk": 7309,
      "atlanta": 7310,
      "geography": 7311,
      "anxiety": 7312,
      "dc": 7313,
      "ashes": 7314,
      "thailand": 7315,
      "unflattering": 7316,
      "sang": 7317,
      "creature": 7318,
      "connects": 7319,
      "fabric": 7320,
      "galician": 7321,
      "drops": 7322,
      "sri": 7323,
      "bars": 7324,
      "nationally": 7325,
      "homo": 7326,
      "improving": 7327,
      "astro": 7328,
      "charity": 7329,
      "constitutional": 7330,
      "uted": 7331,
      "explos": 7332,
      "settings": 7333,
      "bac": 7334,
      "pushed": 7335,
      "reporters": 7336,
      "tribe": 7337,
      "volcanic": 7338,
      "portugal": 7339,
      "mild": 7340,
      "praised": 7341,
      "jenny": 7342,
      "flour": 7343,
      "substit": 7344,
      "tomorrow": 7345,
      "mainst": 7346,
      "capabilities": 7347,
      "areness": 7348,
      "perceived": 7349,
      "barely": 7350,
      "vapor": 7351,
      "interaction": 7352,
      "respective": 7353,
      "umes": 7354,
      "crop": 7355,
      "rupted": 7356,
      "sic": 7357,
      "gos": 7358,
      "interpre": 7359,
      "planets": 7360,
      "regulations": 7361,
      "ske": 7362,
      "awareness": 7363,
      "operates": 7364,
      "enjoying": 7365,
      "statistical": 7366,
      "inspiration": 7367,
      "resource": 7368,
      "athletes": 7369,
      "rejected": 7370,
      "strikes": 7371,
      "keyboard": 7372,
      "fault": 7373,
      "asleep": 7374,
      "tang": 7375,
      "maintained": 7376,
      "brill": 7377,
      "mari": 7378,
      "socie": 7379,
      "arguments": 7380,
      "liverpool": 7381,
      "persons": 7382,
      "hanging": 7383,
      "hosted": 7384,
      "issa": 7385,
      "grateful": 7386,
      "exhibition": 7387,
      "multiply": 7388,
      "filling": 7389,
      "mah": 7390,
      "whereas": 7391,
      "locate": 7392,
      "lions": 7393,
      "bene": 7394,
      "bever": 7395,
      "terrorist": 7396,
      "skip": 7397,
      "americas": 7398,
      "pg": 7399,
      "buck": 7400,
      "genuine": 7401,
      "responded": 7402,
      "heated": 7403,
      "vine": 7404,
      "moral": 7405,
      "theless": 7406,
      "speakers": 7407,
      "integers": 7408,
      "skilled": 7409,
      "embarrass": 7410,
      "gage": 7411,
      "dallas": 7412,
      "saudi": 7413,
      "galax": 7414,
      "validate": 7415,
      "thunder": 7416,
      "sized": 7417,
      "benjam": 7418,
      "spray": 7419,
      "igue": 7420,
      "producers": 7421,
      "hamilton": 7422,
      "ico": 7423,
      "titude": 7424,
      "chess": 7425,
      "spots": 7426,
      "promises": 7427,
      "earn": 7428,
      "ika": 7429,
      "issions": 7430,
      "lav": 7431,
      "seam": 7432,
      "argentina": 7433,
      "worn": 7434,
      "portrait": 7435,
      "kaz": 7436,
      "rag": 7437,
      "interface": 7438,
      "transported": 7439,
      "objective": 7440,
      "strings": 7441,
      "morris": 7442,
      "athens": 7443,
      "forcing": 7444,
      "impression": 7445,
      "grave": 7446,
      "categor": 7447,
      "guidance": 7448,
      "rely": 7449,
      "closing": 7450,
      "assumed": 7451,
      "sits": 7452,
      "verte": 7453,
      "cathedr": 7454,
      "fundamental": 7455,
      "benjamin": 7456,
      "pad": 7457,
      "martial": 7458,
      "lithuan": 7459,
      "goth": 7460,
      "eurasia": 7461,
      "issance": 7462,
      "fighter": 7463,
      "neo": 7464,
      "rena": 7465,
      "electronics": 7466,
      "minimum": 7467,
      "regre": 7468,
      "collaboration": 7469,
      "ento": 7470,
      "tack": 7471,
      "kenned": 7472,
      "edia": 7473,
      "melan": 7474,
      "grandfather": 7475,
      "counting": 7476,
      "oreg": 7477,
      "missou": 7478,
      "rio": 7479,
      "holes": 7480,
      "spiritual": 7481,
      "norwegian": 7482,
      "tourist": 7483,
      "eager": 7484,
      "representation": 7485,
      "tibet": 7486,
      "nelson": 7487,
      "shelf": 7488,
      "todd": 7489,
      "surge": 7490,
      "barbara": 7491,
      "convicted": 7492,
      "privacy": 7493,
      "poetry": 7494,
      "reserve": 7495,
      "panel": 7496,
      "nutr": 7497,
      "hammer": 7498,
      "helen": 7499,
      "verify": 7500,
      "agan": 7501,
      "cau": 7502,
      "conservation": 7503,
      "monster": 7504,
      "orleans": 7505,
      "onel": 7506,
      "exercises": 7507,
      "quebec": 7508,
      "contributing": 7509,
      "alabama": 7510,
      "informs": 7511,
      "ighters": 7512,
      "retirement": 7513,
      "drums": 7514,
      "influences": 7515,
      "prisoners": 7516,
      "erie": 7517,
      "inhabited": 7518,
      "organs": 7519,
      "accum": 7520,
      "cs": 7521,
      "drac": 7522,
      "adventures": 7523,
      "analyzing": 7524,
      "loses": 7525,
      "nancy": 7526,
      "ette": 7527,
      "drivers": 7528,
      "tears": 7529,
      "vised": 7530,
      "threatening": 7531,
      "nickname": 7532,
      "dul": 7533,
      "nutrition": 7534,
      "labels": 7535,
      "amid": 7536,
      "icting": 7537,
      "qa": 7538,
      "partially": 7539,
      "appearing": 7540,
      "physically": 7541,
      "stereoty": 7542,
      "peo": 7543,
      "defence": 7544,
      "uh": 7545,
      "philosoph": 7546,
      "remembered": 7547,
      "southwestern": 7548,
      "investigating": 7549,
      "nominated": 7550,
      "capitalize": 7551,
      "rust": 7552,
      "quer": 7553,
      "seemingly": 7554,
      "shield": 7555,
      "iti": 7556,
      "aughters": 7557,
      "artific": 7558,
      "pleasure": 7559,
      "wounded": 7560,
      "crystal": 7561,
      "compounds": 7562,
      "oscar": 7563,
      "cans": 7564,
      "dimens": 7565,
      "canal": 7566,
      "uz": 7567,
      "jews": 7568,
      "anal": 7569,
      "idge": 7570,
      "yon": 7571,
      "checking": 7572,
      "julie": 7573,
      "rhine": 7574,
      "alous": 7575,
      "hungry": 7576,
      "lined": 7577,
      "storms": 7578,
      "structured": 7579,
      "besides": 7580,
      "winds": 7581,
      "linda": 7582,
      "phoenix": 7583,
      "tons": 7584,
      "carn": 7585,
      "globe": 7586,
      "segment": 7587,
      "brey": 7588,
      "cad": 7589,
      "achievements": 7590,
      "northeastern": 7591,
      "earliest": 7592,
      "lex": 7593,
      "recommendation": 7594,
      "wings": 7595,
      "stones": 7596,
      "amps": 7597,
      "fon": 7598,
      "belt": 7599,
      "convenient": 7600,
      "everybody": 7601,
      "walker": 7602,
      "missouri": 7603,
      "tamil": 7604,
      "mong": 7605,
      "sandwich": 7606,
      "disorder": 7607,
      "graham": 7608,
      "seeks": 7609,
      "queens": 7610,
      "vulner": 7611,
      "promotion": 7612,
      "kiss": 7613,
      "kol": 7614,
      "symphony": 7615,
      "formulate": 7616,
      "epic": 7617,
      "aligned": 7618,
      "gib": 7619,
      "legislative": 7620,
      "malaysia": 7621,
      "nig": 7622,
      "tiger": 7623,
      "warned": 7624,
      "maryland": 7625,
      "keith": 7626,
      "wondering": 7627,
      "colonel": 7628,
      "kennedy": 7629,
      "confused": 7630,
      "accessible": 7631,
      "ologists": 7632,
      "egyptian": 7633,
      "technologies": 7634,
      "zoo": 7635,
      "harsh": 7636,
      "airlines": 7637,
      "yn": 7638,
      "romo": 7639,
      "candy": 7640,
      "fears": 7641,
      "arriving": 7642,
      "boost": 7643,
      "dolph": 7644,
      "chronic": 7645,
      "luke": 7646,
      "bloom": 7647,
      "slovak": 7648,
      "dox": 7649,
      "oured": 7650,
      "borrow": 7651,
      "reward": 7652,
      "ogen": 7653,
      "breakdown": 7654,
      "recycling": 7655,
      "rolled": 7656,
      "illing": 7657,
      "tragic": 7658,
      "aubrey": 7659,
      "walt": 7660,
      "dragon": 7661,
      "mortal": 7662,
      "ima": 7663,
      "daughters": 7664,
      "ranging": 7665,
      "kg": 7666,
      "dos": 7667,
      "bub": 7668,
      "raj": 7669,
      "babies": 7670,
      "bets": 7671,
      "prev": 7672,
      "weekly": 7673,
      "crossing": 7674,
      "buff": 7675,
      "formally": 7676,
      "sheet": 7677,
      "kine": 7678,
      "mainstream": 7679,
      "romania": 7680,
      "pronounced": 7681,
      "iler": 7682,
      "fails": 7683,
      "mato": 7684,
      "painted": 7685,
      "throws": 7686,
      "lung": 7687,
      "revolves": 7688,
      "portrayed": 7689,
      "baltic": 7690,
      "lesson": 7691,
      "oregon": 7692,
      "vertebr": 7693,
      "antarctic": 7694,
      "directions": 7695,
      "consecut": 7696,
      "champions": 7697,
      "argued": 7698,
      "afted": 7699,
      "marath": 7700,
      "environments": 7701,
      "recip": 7702,
      "pushing": 7703,
      "alaska": 7704,
      "aws": 7705,
      "dracula": 7706,
      "creativity": 7707,
      "forth": 7708,
      "caster": 7709,
      "mold": 7710,
      "fate": 7711,
      "bonds": 7712,
      "vig": 7713,
      "fingers": 7714,
      "owl": 7715,
      "replacement": 7716,
      "closure": 7717,
      "fairly": 7718,
      "holland": 7719,
      "existed": 7720,
      "butterfly": 7721,
      "bren": 7722,
      "jacket": 7723,
      "terrorism": 7724,
      "appointment": 7725,
      "haust": 7726,
      "plural": 7727,
      "ortho": 7728,
      "distur": 7729,
      "psychological": 7730,
      "hawaii": 7731,
      "gardens": 7732,
      "chapter": 7733,
      "toler": 7734,
      "continuing": 7735,
      "rant": 7736,
      "sham": 7737,
      "scandin": 7738,
      "aaron": 7739,
      "conducting": 7740,
      "horiz": 7741,
      "branches": 7742,
      "fighters": 7743,
      "programme": 7744,
      "utter": 7745,
      "zhou": 7746,
      "painter": 7747,
      "ende": 7748,
      "exhaust": 7749,
      "threats": 7750,
      "phal": 7751,
      "planes": 7752,
      "legally": 7753,
      "lob": 7754,
      "warri": 7755,
      "convince": 7756,
      "murders": 7757,
      "www": 7758,
      "absorb": 7759,
      "earl": 7760,
      "extr": 7761,
      "arabia": 7762,
      "stanley": 7763,
      "joins": 7764,
      "respiratory": 7765,
      "endor": 7766,
      "operate": 7767,
      "tab": 7768,
      "reduction": 7769,
      "bil": 7770,
      "vs": 7771,
      "shout": 7772,
      "nth": 7773,
      "cholester": 7774,
      "oe": 7775,
      "predators": 7776,
      "origins": 7777,
      "traveled": 7778,
      "actively": 7779,
      "harrison": 7780,
      "completion": 7781,
      "rebell": 7782,
      "preferred": 7783,
      "elsewhere": 7784,
      "quit": 7785,
      "confusion": 7786,
      "links": 7787,
      "mathematics": 7788,
      "cure": 7789,
      "spends": 7790,
      "angle": 7791,
      "antonio": 7792,
      "prospect": 7793,
      "extends": 7794,
      "websites": 7795,
      "exceed": 7796,
      "dell": 7797,
      "creek": 7798,
      "firstly": 7799,
      "dependent": 7800,
      "kentucky": 7801,
      "cholesterol": 7802,
      "aside": 7803,
      "russell": 7804,
      "totally": 7805,
      "apps": 7806,
      "como": 7807,
      "rah": 7808,
      "clients": 7809,
      "intrig": 7810,
      "usions": 7811,
      "enance": 7812,
      "equally": 7813,
      "exploration": 7814,
      "somal": 7815,
      "chile": 7816,
      "melbourne": 7817,
      "gig": 7818,
      "entrance": 7819,
      "hungary": 7820,
      "qing": 7821,
      "notices": 7822,
      "iere": 7823,
      "powered": 7824,
      "tort": 7825,
      "jury": 7826,
      "allegations": 7827,
      "quarterback": 7828,
      "regime": 7829,
      "organisation": 7830,
      "horn": 7831,
      "rated": 7832,
      "declined": 7833,
      "alps": 7834,
      "integer": 7835,
      "courses": 7836,
      "tables": 7837,
      "heading": 7838,
      "purchasing": 7839,
      "earthquakes": 7840,
      "tis": 7841,
      "cott": 7842,
      "datab": 7843,
      "viruses": 7844,
      "transferred": 7845,
      "grammy": 7846,
      "consecutive": 7847,
      "aspir": 7848,
      "fright": 7849,
      "corruption": 7850,
      "cleve": 7851,
      "ears": 7852,
      "wishes": 7853,
      "metropolis": 7854,
      "gordon": 7855,
      "widow": 7856,
      "fake": 7857,
      "sav": 7858,
      "clos": 7859,
      "repeatedly": 7860,
      "progressive": 7861,
      "noble": 7862,
      "stir": 7863,
      "redem": 7864,
      "cen": 7865,
      "cathedral": 7866,
      "governed": 7867,
      "inspe": 7868,
      "banglad": 7869,
      "rell": 7870,
      "inder": 7871,
      "hamburg": 7872,
      "dishwasher": 7873,
      "relie": 7874,
      "recover": 7875,
      "climbing": 7876,
      "rical": 7877,
      "gov": 7878,
      "facilit": 7879,
      "fitness": 7880,
      "kor": 7881,
      "aids": 7882,
      "witch": 7883,
      "headquarter": 7884,
      "airline": 7885,
      "mack": 7886,
      "surve": 7887,
      "phenomenon": 7888,
      "ym": 7889,
      "template": 7890,
      "executed": 7891,
      "hack": 7892,
      "powder": 7893,
      "napole": 7894,
      "isms": 7895,
      "bast": 7896,
      "statistics": 7897,
      "exploring": 7898,
      "taxes": 7899,
      "avenue": 7900,
      "tration": 7901,
      "educated": 7902,
      "reception": 7903,
      "athletic": 7904,
      "insight": 7905,
      "shine": 7906,
      "innovative": 7907,
      "toxic": 7908,
      "barack": 7909,
      "papers": 7910,
      "kidneys": 7911,
      "cc": 7912,
      "protests": 7913,
      "colonial": 7914,
      "comparing": 7915,
      "mansion": 7916,
      "deem": 7917,
      "develops": 7918,
      "israeli": 7919,
      "harbor": 7920,
      "pancreas": 7921,
      "vacc": 7922,
      "maine": 7923,
      "defensive": 7924,
      "strategies": 7925,
      "monte": 7926,
      "consequently": 7927,
      "otta": 7928,
      "corps": 7929,
      "acceler": 7930,
      "taxi": 7931,
      "revolutionary": 7932,
      "idency": 7933,
      "recon": 7934,
      "twee": 7935,
      "dominated": 7936,
      "fascin": 7937,
      "remarkable": 7938,
      "essentially": 7939,
      "exec": 7940,
      "grocer": 7941,
      "iser": 7942,
      "characteristic": 7943,
      "redemption": 7944,
      "skylar": 7945,
      "lips": 7946,
      "encouraged": 7947,
      "interactions": 7948,
      "flowing": 7949,
      "conversations": 7950,
      "hurricane": 7951,
      "lawyers": 7952,
      "rever": 7953,
      "lighting": 7954,
      "patriots": 7955,
      "anyway": 7956,
      "betray": 7957,
      "throne": 7958,
      "sile": 7959,
      "colony": 7960,
      "presentation": 7961,
      "cartoon": 7962,
      "chuck": 7963,
      "christianity": 7964,
      "captures": 7965,
      "substantial": 7966,
      "racial": 7967,
      "reporting": 7968,
      "mare": 7969,
      "rarely": 7970,
      "robot": 7971,
      "fitz": 7972,
      "wang": 7973,
      "peters": 7974,
      "margin": 7975,
      "cooperation": 7976,
      "productions": 7977,
      "edit": 7978,
      "shocked": 7979,
      "chip": 7980,
      "battles": 7981,
      "aggressive": 7982,
      "dian": 7983,
      "amate": 7984,
      "coverage": 7985,
      "scholars": 7986,
      "fantastic": 7987,
      "baker": 7988,
      "obtained": 7989,
      "decay": 7990,
      "rope": 7991,
      "peg": 7992,
      "louisiana": 7993,
      "tric": 7994,
      "gart": 7995,
      "temperate": 7996,
      "hitting": 7997,
      "uv": 7998,
      "disrupt": 7999,
      "marsh": 8000,
      "roberts": 8001,
      "knight": 8002,
      "toile": 8003,
      "ect": 8004,
      "glomer": 8005,
      "modified": 8006,
      "citizenship": 8007,
      "eagle": 8008,
      "beneath": 8009,
      "violin": 8010,
      "legit": 8011,
      "votes": 8012,
      "cooked": 8013,
      "anywhere": 8014,
      "twist": 8015,
      "versary": 8016,
      "preventing": 8017,
      "oblig": 8018,
      "margaret": 8019,
      "craig": 8020,
      "unnecessary": 8021,
      "platforms": 8022,
      "iver": 8023,
      "churches": 8024,
      "bye": 8025,
      "filed": 8026,
      "publish": 8027,
      "angela": 8028,
      "concrete": 8029,
      "apo": 8030,
      "juice": 8031,
      "cleveland": 8032,
      "survived": 8033,
      "perfectly": 8034,
      "therapy": 8035,
      "tut": 8036,
      "constituent": 8037,
      "praise": 8038,
      "kicker": 8039,
      "julia": 8040,
      "encourages": 8041,
      "bits": 8042,
      "sauce": 8043,
      "teenager": 8044,
      "laden": 8045,
      "commerce": 8046,
      "headquartered": 8047,
      "simult": 8048,
      "villages": 8049,
      "ease": 8050,
      "poverty": 8051,
      "brun": 8052,
      "capitalized": 8053,
      "simultane": 8054,
      "wig": 8055,
      "trio": 8056,
      "duo": 8057,
      "asser": 8058,
      "copper": 8059,
      "bage": 8060,
      "signals": 8061,
      "believing": 8062,
      "achievement": 8063,
      "functioning": 8064,
      "sq": 8065,
      "samuel": 8066,
      "rings": 8067,
      "beings": 8068,
      "pride": 8069,
      "murray": 8070,
      "loving": 8071,
      "define": 8072,
      "comma": 8073,
      "solving": 8074,
      "adams": 8075,
      "abc": 8076,
      "syrian": 8077,
      "psychiat": 8078,
      "deplo": 8079,
      "abulary": 8080,
      "stranger": 8081,
      "suspects": 8082,
      "pulls": 8083,
      "checked": 8084,
      "converted": 8085,
      "immigrants": 8086,
      "missions": 8087,
      "rs": 8088,
      "aza": 8089,
      "celebration": 8090,
      "manufacturer": 8091,
      "tical": 8092,
      "moisture": 8093,
      "connecting": 8094,
      "thompson": 8095,
      "omin": 8096,
      "nouns": 8097,
      "ifted": 8098,
      "pale": 8099,
      "measured": 8100,
      "claire": 8101,
      "slower": 8102,
      "picks": 8103,
      "scan": 8104,
      "digit": 8105,
      "wax": 8106,
      "badly": 8107,
      "pairs": 8108,
      "ilation": 8109,
      "maur": 8110,
      "mort": 8111,
      "license": 8112,
      "sanctions": 8113,
      "designs": 8114,
      "tonight": 8115,
      "custody": 8116,
      "friction": 8117,
      "addressing": 8118,
      "deer": 8119,
      "convinces": 8120,
      "rep": 8121,
      "stages": 8122,
      "trains": 8123,
      "protecting": 8124,
      "isen": 8125,
      "safely": 8126,
      "penalty": 8127,
      "gifts": 8128,
      "shower": 8129,
      "thal": 8130,
      "logic": 8131,
      "reed": 8132,
      "pearl": 8133,
      "fleet": 8134,
      "criticized": 8135,
      "avo": 8136,
      "ao": 8137,
      "balanced": 8138,
      "execution": 8139,
      "appreciation": 8140,
      "extend": 8141,
      "peaceful": 8142,
      "prop": 8143,
      "gran": 8144,
      "xx": 8145,
      "sustainable": 8146,
      "wore": 8147,
      "approved": 8148,
      "zar": 8149,
      "artificial": 8150,
      "reverse": 8151,
      "swift": 8152,
      "wag": 8153,
      "lifetime": 8154,
      "thriller": 8155,
      "incredible": 8156,
      "chand": 8157,
      "ird": 8158,
      "deadly": 8159,
      "ottoman": 8160,
      "melting": 8161,
      "laboratory": 8162,
      "fis": 8163,
      "closest": 8164,
      "maced": 8165,
      "gently": 8166,
      "stunning": 8167,
      "shakes": 8168,
      "boarding": 8169,
      "resu": 8170,
      "iko": 8171,
      "proved": 8172,
      "echo": 8173,
      "frozen": 8174,
      "breathe": 8175,
      "desperate": 8176,
      "reminder": 8177,
      "hem": 8178,
      "speaks": 8179,
      "nate": 8180,
      "spider": 8181,
      "riers": 8182,
      "warns": 8183,
      "targeted": 8184,
      "chy": 8185,
      "controversy": 8186,
      "aes": 8187,
      "sections": 8188,
      "sop": 8189,
      "implications": 8190,
      "impacts": 8191,
      "adjective": 8192,
      "treasure": 8193,
      "affe": 8194,
      "dot": 8195,
      "congressional": 8196,
      "concerts": 8197,
      "experimental": 8198,
      "sperm": 8199,
      "tig": 8200,
      "introduces": 8201,
      "specify": 8202,
      "attraction": 8203,
      "onym": 8204,
      "diabet": 8205,
      "acids": 8206,
      "wrestling": 8207,
      "anat": 8208,
      "authors": 8209,
      "serbia": 8210,
      "humid": 8211,
      "giants": 8212,
      "zom": 8213,
      "omit": 8214,
      "abled": 8215,
      "ashed": 8216,
      "suspected": 8217,
      "jama": 8218,
      "notably": 8219,
      "fled": 8220,
      "basement": 8221,
      "glor": 8222,
      "lix": 8223,
      "factual": 8224,
      "excessive": 8225,
      "tox": 8226,
      "adjac": 8227,
      "bridges": 8228,
      "uters": 8229,
      "tomato": 8230,
      "fold": 8231,
      "opponent": 8232,
      "emma": 8233,
      "snake": 8234,
      "subsidiary": 8235,
      "approached": 8236,
      "bangladesh": 8237,
      "scheme": 8238,
      "emissions": 8239,
      "ultimate": 8240,
      "heaven": 8241,
      "signing": 8242,
      "itals": 8243,
      "aims": 8244,
      "biodi": 8245,
      "kinetic": 8246,
      "franco": 8247,
      "iated": 8248,
      "orthodox": 8249,
      "yuan": 8250,
      "pepper": 8251,
      "dak": 8252,
      "biz": 8253,
      "innocent": 8254,
      "plausible": 8255,
      "boring": 8256,
      "yorkshire": 8257,
      "climb": 8258,
      "physi": 8259,
      "adjacent": 8260,
      "wes": 8261,
      "stewart": 8262,
      "printed": 8263,
      "enda": 8264,
      "inher": 8265,
      "imprison": 8266,
      "relate": 8267,
      "dum": 8268,
      "sulfur": 8269,
      "exists": 8270,
      "respected": 8271,
      "scared": 8272,
      "publicly": 8273,
      "getty": 8274,
      "romney": 8275,
      "fool": 8276,
      "maggie": 8277,
      "othy": 8278,
      "invites": 8279,
      "gio": 8280,
      "riel": 8281,
      "stit": 8282,
      "surviving": 8283,
      "inf": 8284,
      "iner": 8285,
      "browns": 8286,
      "pine": 8287,
      "delhi": 8288,
      "posts": 8289,
      "eliminate": 8290,
      "explosion": 8291,
      "eaten": 8292,
      "apolis": 8293,
      "cheer": 8294,
      "occurring": 8295,
      "remo": 8296,
      "nobel": 8297,
      "aches": 8298,
      "parad": 8299,
      "applying": 8300,
      "liz": 8301,
      "shallow": 8302,
      "bengal": 8303,
      "intellectual": 8304,
      "mush": 8305,
      "footage": 8306,
      "ampton": 8307,
      "jab": 8308,
      "danish": 8309,
      "viewed": 8310,
      "prede": 8311,
      "blin": 8312,
      "throat": 8313,
      "underlying": 8314,
      "mumbai": 8315,
      "magazines": 8316,
      "joan": 8317,
      "palest": 8318,
      "cotton": 8319,
      "rescu": 8320,
      "isible": 8321,
      "attributed": 8322,
      "chaos": 8323,
      "missile": 8324,
      "mineral": 8325,
      "protagonist": 8326,
      "unhappy": 8327,
      "muslims": 8328,
      "vocabulary": 8329,
      "stell": 8330,
      "barn": 8331,
      "departure": 8332,
      "flip": 8333,
      "principle": 8334,
      "competed": 8335,
      "invented": 8336,
      "distant": 8337,
      "obstacles": 8338,
      "chron": 8339,
      "tensions": 8340,
      "shark": 8341,
      "expertise": 8342,
      "uran": 8343,
      "predecess": 8344,
      "mala": 8345,
      "amph": 8346,
      "mend": 8347,
      "compat": 8348,
      "laughter": 8349,
      "memorable": 8350,
      "skate": 8351,
      "ike": 8352,
      "sta": 8353,
      "neighboring": 8354,
      "harold": 8355,
      "wiscons": 8356,
      "attered": 8357,
      "geographically": 8358,
      "paras": 8359,
      "handling": 8360,
      "betty": 8361,
      "stays": 8362,
      "magical": 8363,
      "tent": 8364,
      "utah": 8365,
      "boxes": 8366,
      "cker": 8367,
      "pist": 8368,
      "wisconsin": 8369,
      "enson": 8370,
      "supernatural": 8371,
      "diplomatic": 8372,
      "democrat": 8373,
      "juana": 8374,
      "cube": 8375,
      "ranges": 8376,
      "brooklyn": 8377,
      "lang": 8378,
      "farming": 8379,
      "landlocked": 8380,
      "numerical": 8381,
      "intervent": 8382,
      "iconic": 8383,
      "tourism": 8384,
      "isles": 8385,
      "pants": 8386,
      "manuel": 8387,
      "fights": 8388,
      "oring": 8389,
      "bies": 8390,
      "habitats": 8391,
      "karl": 8392,
      "tested": 8393,
      "fielder": 8394,
      "authen": 8395,
      "pursuit": 8396,
      "secrets": 8397,
      "kicked": 8398,
      "ptive": 8399,
      "coalition": 8400,
      "shr": 8401,
      "spy": 8402,
      "mona": 8403,
      "rix": 8404,
      "jealous": 8405,
      "achieving": 8406,
      "definitions": 8407,
      "statue": 8408,
      "boxing": 8409,
      "engagement": 8410,
      "gra": 8411,
      "iceland": 8412,
      "survivors": 8413,
      "alike": 8414,
      "stroke": 8415,
      "spell": 8416,
      "azer": 8417,
      "essa": 8418,
      "abra": 8419,
      "parallel": 8420,
      "franca": 8421,
      "errors": 8422,
      "confronts": 8423,
      "montre": 8424,
      "gad": 8425,
      "pip": 8426,
      "anders": 8427,
      "plug": 8428,
      "calend": 8429,
      "chin": 8430,
      "worthy": 8431,
      "ading": 8432,
      "strain": 8433,
      "shoulder": 8434,
      "chal": 8435,
      "belonging": 8436,
      "isation": 8437,
      "followers": 8438,
      "rog": 8439,
      "etta": 8440,
      "punishment": 8441,
      "dump": 8442,
      "uber": 8443,
      "horr": 8444,
      "admit": 8445,
      "exception": 8446,
      "regulation": 8447,
      "emphasis": 8448,
      "eats": 8449,
      "ng": 8450,
      "qualities": 8451,
      "dialect": 8452,
      "hoped": 8453,
      "promising": 8454,
      "assassin": 8455,
      "nathan": 8456,
      "bella": 8457,
      "sovereignty": 8458,
      "mason": 8459,
      "sket": 8460,
      "stup": 8461,
      "shake": 8462,
      "isolated": 8463,
      "ivo": 8464,
      "sentenced": 8465,
      "eston": 8466,
      "ranks": 8467,
      "crus": 8468,
      "baking": 8469,
      "elevation": 8470,
      "suspicious": 8471,
      "tomb": 8472,
      "sunny": 8473,
      "meaningful": 8474,
      "fs": 8475,
      "turner": 8476,
      "burger": 8477,
      "parker": 8478,
      "distinctive": 8479,
      "avian": 8480,
      "fusion": 8481,
      "aman": 8482,
      "maintenance": 8483,
      "honour": 8484,
      "gging": 8485,
      "voting": 8486,
      "relatives": 8487,
      "madrid": 8488,
      "incredibly": 8489,
      "conductor": 8490,
      "ninth": 8491,
      "yed": 8492,
      "colleges": 8493,
      "semin": 8494,
      "frustrated": 8495,
      "insulin": 8496,
      "franklin": 8497,
      "palestin": 8498,
      "replied": 8499,
      "loyal": 8500,
      "renaissance": 8501,
      "chromo": 8502,
      "ophy": 8503,
      "cakes": 8504,
      "reportedly": 8505,
      "baron": 8506,
      "alber": 8507,
      "mongol": 8508,
      "sandy": 8509,
      "awes": 8510,
      "motorcycle": 8511,
      "hend": 8512,
      "fraud": 8513,
      "authentic": 8514,
      "gear": 8515,
      "ranch": 8516,
      "catches": 8517,
      "holmes": 8518,
      "performs": 8519,
      "uniform": 8520,
      "coin": 8521,
      "robbery": 8522,
      "hism": 8523,
      "rubber": 8524,
      "anymore": 8525,
      "cloth": 8526,
      "juan": 8527,
      "indigen": 8528,
      "sticks": 8529,
      "interviews": 8530,
      "meetings": 8531,
      "kyle": 8532,
      "oceanic": 8533,
      "kun": 8534,
      "turing": 8535,
      "veteran": 8536,
      "haun": 8537,
      "aker": 8538,
      "yield": 8539,
      "hindu": 8540,
      "joys": 8541,
      "everywhere": 8542,
      "experiments": 8543,
      "collapse": 8544,
      "icut": 8545,
      "crystals": 8546,
      "opol": 8547,
      "chef": 8548,
      "adaptation": 8549,
      "deleg": 8550,
      "holm": 8551,
      "aken": 8552,
      "pard": 8553,
      "lanka": 8554,
      "biodiversity": 8555,
      "quate": 8556,
      "secretly": 8557,
      "displayed": 8558,
      "trend": 8559,
      "soundtrack": 8560,
      "hs": 8561,
      "mn": 8562,
      "recommends": 8563,
      "idal": 8564,
      "persist": 8565,
      "ethan": 8566,
      "feeding": 8567,
      "generic": 8568,
      "itarian": 8569,
      "jets": 8570,
      "dawn": 8571,
      "differently": 8572,
      "grades": 8573,
      "libya": 8574,
      "captiv": 8575,
      "gle": 8576,
      "amateur": 8577,
      "ea": 8578,
      "scores": 8579,
      "addy": 8580,
      "justify": 8581,
      "dans": 8582,
      "youtube": 8583,
      "releasing": 8584,
      "nash": 8585,
      "fatal": 8586,
      "montreal": 8587,
      "sword": 8588,
      "cogn": 8589,
      "villa": 8590,
      "arabian": 8591,
      "scandal": 8592,
      "espan": 8593,
      "predomin": 8594,
      "pointed": 8595,
      "debris": 8596,
      "conspir": 8597,
      "curious": 8598,
      "difficulties": 8599,
      "venue": 8600,
      "dictionary": 8601,
      "superhero": 8602,
      "indigenous": 8603,
      "volunteers": 8604,
      "outcomes": 8605,
      "mish": 8606,
      "lod": 8607,
      "practicing": 8608,
      "unci": 8609,
      "sevent": 8610,
      "anniversary": 8611,
      "pregnancy": 8612,
      "enzymes": 8613,
      "photographs": 8614,
      "diabetes": 8615,
      "recall": 8616,
      "affordable": 8617,
      "alve": 8618,
      "nato": 8619,
      "puer": 8620,
      "shy": 8621,
      "connecticut": 8622,
      "algae": 8623,
      "dore": 8624,
      "karen": 8625,
      "sheep": 8626,
      "reflected": 8627,
      "thames": 8628,
      "aba": 8629,
      "ambig": 8630,
      "freezer": 8631,
      "colorful": 8632,
      "elic": 8633,
      "mble": 8634,
      "ozone": 8635,
      "evac": 8636,
      "dod": 8637,
      "prestig": 8638,
      "idi": 8639,
      "marvel": 8640,
      "assets": 8641,
      "disappeared": 8642,
      "hammad": 8643,
      "pene": 8644,
      "oct": 8645,
      "failing": 8646,
      "lily": 8647,
      "mig": 8648,
      "feld": 8649,
      "antib": 8650,
      "boot": 8651,
      "poorly": 8652,
      "aboard": 8653,
      "cabin": 8654,
      "cooling": 8655,
      "amster": 8656,
      "nasa": 8657,
      "encouraging": 8658,
      "java": 8659,
      "tragedy": 8660,
      "prox": 8661,
      "breast": 8662,
      "joke": 8663,
      "uating": 8664,
      "rainfall": 8665,
      "uster": 8666,
      "preparation": 8667,
      "shed": 8668,
      "agger": 8669,
      "abstr": 8670,
      "kip": 8671,
      "allegedly": 8672,
      "transform": 8673,
      "amsterdam": 8674,
      "rape": 8675,
      "astronaut": 8676,
      "prestigious": 8677,
      "silence": 8678,
      "consume": 8679,
      "serial": 8680,
      "beneficial": 8681,
      "polite": 8682,
      "rico": 8683,
      "explaining": 8684,
      "tunnel": 8685,
      "answering": 8686,
      "decreased": 8687,
      "elle": 8688,
      "harvest": 8689,
      "recept": 8690,
      "bility": 8691,
      "protective": 8692,
      "timore": 8693,
      "ampl": 8694,
      "disgu": 8695,
      "preserve": 8696,
      "bulgaria": 8697,
      "estimate": 8698,
      "reproduce": 8699,
      "laughing": 8700,
      "socialist": 8701,
      "youngest": 8702,
      "nigeria": 8703,
      "arsen": 8704,
      "considerable": 8705,
      "logically": 8706,
      "width": 8707,
      "criminals": 8708,
      "noting": 8709,
      "bench": 8710,
      "kam": 8711,
      "competing": 8712,
      "hormon": 8713,
      "jamie": 8714,
      "resign": 8715,
      "dub": 8716,
      "usalem": 8717,
      "gt": 8718,
      "pound": 8719,
      "ambass": 8720,
      "irs": 8721,
      "civilian": 8722,
      "insists": 8723,
      "announcement": 8724,
      "arrangement": 8725,
      "monarchy": 8726,
      "casino": 8727,
      "balloon": 8728,
      "vacu": 8729,
      "grammatical": 8730,
      "helicopter": 8731,
      "intensity": 8732,
      "cruise": 8733,
      "teens": 8734,
      "consistently": 8735,
      "crying": 8736,
      "photographer": 8737,
      "phar": 8738,
      "descend": 8739,
      "associate": 8740,
      "baltimore": 8741,
      "iso": 8742,
      "humanity": 8743,
      "teenth": 8744,
      "sue": 8745,
      "minority": 8746,
      "mutual": 8747,
      "natal": 8748,
      "suff": 8749,
      "checks": 8750,
      "ellen": 8751,
      "dennis": 8752,
      "hasn": 8753,
      "explores": 8754,
      "warmer": 8755,
      "obviously": 8756,
      "lacks": 8757,
      "ih": 8758,
      "portland": 8759,
      "targets": 8760,
      "composers": 8761,
      "regret": 8762,
      "wavel": 8763,
      "courts": 8764,
      "boiling": 8765,
      "wavelength": 8766,
      "atmospher": 8767,
      "contribution": 8768,
      "adri": 8769,
      "merged": 8770,
      "compens": 8771,
      "mck": 8772,
      "escal": 8773,
      "shorten": 8774,
      "jewel": 8775,
      "politicians": 8776,
      "partly": 8777,
      "jerusalem": 8778,
      "homeless": 8779,
      "revealing": 8780,
      "enthusi": 8781,
      "umn": 8782,
      "jed": 8783,
      "dissolved": 8784,
      "tire": 8785,
      "birthplace": 8786,
      "mingham": 8787,
      "boats": 8788,
      "harvard": 8789,
      "stev": 8790,
      "ruler": 8791,
      "hearts": 8792,
      "infections": 8793,
      "brus": 8794,
      "hua": 8795,
      "begun": 8796,
      "declar": 8797,
      "sig": 8798,
      "gabriel": 8799,
      "gol": 8800,
      "unity": 8801,
      "pencil": 8802,
      "tissues": 8803,
      "participating": 8804,
      "installed": 8805,
      "investors": 8806,
      "counted": 8807,
      "birmingham": 8808,
      "voted": 8809,
      "mg": 8810,
      "professionals": 8811,
      "priorit": 8812,
      "clever": 8813,
      "credits": 8814,
      "gau": 8815,
      "civilization": 8816,
      "naked": 8817,
      "economics": 8818,
      "prescri": 8819,
      "jerem": 8820,
      "voices": 8821,
      "warren": 8822,
      "ets": 8823,
      "dow": 8824,
      "predominantly": 8825,
      "cage": 8826,
      "creator": 8827,
      "suspended": 8828,
      "pleased": 8829,
      "strand": 8830,
      "hosts": 8831,
      "threatens": 8832,
      "surfaces": 8833,
      "ecolog": 8834,
      "extension": 8835,
      "inflam": 8836,
      "cardinal": 8837,
      "judgment": 8838,
      "wakes": 8839,
      "whenever": 8840,
      "fel": 8841,
      "yle": 8842,
      "revel": 8843,
      "brig": 8844,
      "ela": 8845,
      "grim": 8846,
      "shoe": 8847,
      "siles": 8848,
      "beats": 8849,
      "countryside": 8850,
      "alfred": 8851,
      "shipping": 8852,
      "dre": 8853,
      "indicated": 8854,
      "becca": 8855,
      "borne": 8856,
      "hardware": 8857,
      "motivation": 8858,
      "eagles": 8859,
      "avoiding": 8860,
      "digestive": 8861,
      "robinson": 8862,
      "updates": 8863,
      "stupid": 8864,
      "internationally": 8865,
      "lonely": 8866,
      "entit": 8867,
      "casts": 8868,
      "abroad": 8869,
      "mutations": 8870,
      "kn": 8871,
      "pee": 8872,
      "ceremon": 8873,
      "digestion": 8874,
      "domain": 8875,
      "restrial": 8876,
      "receiver": 8877,
      "aved": 8878,
      "cracks": 8879,
      "ortion": 8880,
      "provincial": 8881,
      "ecosystems": 8882,
      "radical": 8883,
      "aristo": 8884,
      "pentru": 8885,
      "pitts": 8886,
      "poo": 8887,
      "stre": 8888,
      "maintains": 8889,
      "harass": 8890,
      "membership": 8891,
      "permission": 8892,
      "conjunction": 8893,
      "hesit": 8894,
      "spon": 8895,
      "anya": 8896,
      "iphone": 8897,
      "puerto": 8898,
      "urine": 8899,
      "negotiations": 8900,
      "responsibilities": 8901,
      "ladies": 8902,
      "inject": 8903,
      "quantity": 8904,
      "http": 8905,
      "backing": 8906,
      "salv": 8907,
      "seasonal": 8908,
      "promoted": 8909,
      "ori": 8910,
      "duck": 8911,
      "architectural": 8912,
      "hawks": 8913,
      "dynamics": 8914,
      "isy": 8915,
      "roller": 8916,
      "beloved": 8917,
      "unes": 8918,
      "owa": 8919,
      "leather": 8920,
      "letting": 8921,
      "prostit": 8922,
      "instances": 8923,
      "consumed": 8924,
      "losses": 8925,
      "gains": 8926,
      "reson": 8927,
      "murphy": 8928,
      "array": 8929,
      "lus": 8930,
      "tender": 8931,
      "imply": 8932,
      "cents": 8933,
      "brilliant": 8934,
      "packed": 8935,
      "feather": 8936,
      "medication": 8937,
      "operator": 8938,
      "determining": 8939,
      "usively": 8940,
      "participated": 8941,
      "jong": 8942,
      "rons": 8943,
      "applic": 8944,
      "kilometres": 8945,
      "gop": 8946,
      "bronze": 8947,
      "collective": 8948,
      "evaluation": 8949,
      "arest": 8950,
      "preserved": 8951,
      "railroad": 8952,
      "idol": 8953,
      "lich": 8954,
      "quot": 8955,
      "renamed": 8956,
      "infan": 8957,
      "sexually": 8958,
      "lava": 8959,
      "sloven": 8960,
      "chelsea": 8961,
      "finals": 8962,
      "entertaining": 8963,
      "commands": 8964,
      "versat": 8965,
      "lug": 8966,
      "esp": 8967,
      "prohib": 8968,
      "campbell": 8969,
      "antically": 8970,
      "nails": 8971,
      "ourselves": 8972,
      "lah": 8973,
      "chell": 8974,
      "recipe": 8975,
      "tags": 8976,
      "cass": 8977,
      "doll": 8978,
      "frederick": 8979,
      "anes": 8980,
      "screenwriter": 8981,
      "zie": 8982,
      "dancer": 8983,
      "invention": 8984,
      "gren": 8985,
      "cookies": 8986,
      "procedure": 8987,
      "marty": 8988,
      "labeled": 8989,
      "alveoli": 8990,
      "guang": 8991,
      "napoleon": 8992,
      "merely": 8993,
      "bapt": 8994,
      "bless": 8995,
      "cence": 8996,
      "stum": 8997,
      "bite": 8998,
      "shen": 8999,
      "enor": 9000,
      "holders": 9001,
      "indoor": 9002,
      "awesome": 9003,
      "realizing": 9004,
      "mono": 9005,
      "straw": 9006,
      "entails": 9007,
      "bombing": 9008,
      "drake": 9009,
      "icking": 9010,
      "shu": 9011,
      "petersburg": 9012,
      "tribes": 9013,
      "bride": 9014,
      "amendment": 9015,
      "hints": 9016,
      "ifi": 9017,
      "yar": 9018,
      "watson": 9019,
      "advantages": 9020,
      "kath": 9021,
      "sara": 9022,
      "bourg": 9023,
      "bacter": 9024,
      "demonstrates": 9025,
      "warfare": 9026,
      "kok": 9027,
      "stretch": 9028,
      "discussions": 9029,
      "tina": 9030,
      "concerning": 9031,
      "consideration": 9032,
      "beans": 9033,
      "tasman": 9034,
      "devon": 9035,
      "trium": 9036,
      "opposing": 9037,
      "clif": 9038,
      "companion": 9039,
      "jumps": 9040,
      "sier": 9041,
      "fen": 9042,
      "channels": 9043,
      "beaten": 9044,
      "singers": 9045,
      "realistic": 9046,
      "consuming": 9047,
      "assessment": 9048,
      "enthusiasm": 9049,
      "idad": 9050,
      "comedian": 9051,
      "abbreviation": 9052,
      "personally": 9053,
      "cups": 9054,
      "assuming": 9055,
      "koso": 9056,
      "edin": 9057,
      "broadway": 9058,
      "similarity": 9059,
      "vacuum": 9060,
      "picking": 9061,
      "duties": 9062,
      "duct": 9063,
      "caes": 9064,
      "zon": 9065,
      "eding": 9066,
      "plas": 9067,
      "essence": 9068,
      "trash": 9069,
      "dispute": 9070,
      "reuters": 9071,
      "addresses": 9072,
      "cultiv": 9073,
      "developer": 9074,
      "julian": 9075,
      "deliber": 9076,
      "flew": 9077,
      "qaeda": 9078,
      "capito": 9079,
      "graduated": 9080,
      "stimul": 9081,
      "gly": 9082,
      "enjoys": 9083,
      "elig": 9084,
      "newfound": 9085,
      "uncomfortable": 9086,
      "evans": 9087,
      "bitter": 9088,
      "brave": 9089,
      "indo": 9090,
      "lawsuit": 9091,
      "collins": 9092,
      "simultaneously": 9093,
      "shouldn": 9094,
      "database": 9095,
      "cemeter": 9096,
      "blend": 9097,
      "welsh": 9098,
      "discipline": 9099,
      "blame": 9100,
      "regis": 9101,
      "lemon": 9102,
      "mtv": 9103,
      "stake": 9104,
      "chop": 9105,
      "precip": 9106,
      "tribute": 9107,
      "query": 9108,
      "marijuana": 9109,
      "accompany": 9110,
      "antha": 9111,
      "woody": 9112,
      "restore": 9113,
      "christians": 9114,
      "thoroughly": 9115,
      "ralph": 9116,
      "astronom": 9117,
      "verifying": 9118,
      "wilder": 9119,
      "zor": 9120,
      "asi": 9121,
      "dles": 9122,
      "gross": 9123,
      "flights": 9124,
      "cht": 9125,
      "municipalities": 9126,
      "fier": 9127,
      "functional": 9128,
      "alright": 9129,
      "smug": 9130,
      "soup": 9131,
      "historian": 9132,
      "perry": 9133,
      "gence": 9134,
      "itivity": 9135,
      "mete": 9136,
      "nun": 9137,
      "fairy": 9138,
      "contradict": 9139,
      "addressed": 9140,
      "demonstrate": 9141,
      "holidays": 9142,
      "peoples": 9143,
      "abraham": 9144,
      "potter": 9145,
      "incidents": 9146,
      "petition": 9147,
      "allied": 9148,
      "atmospheric": 9149,
      "plum": 9150,
      "fitting": 9151,
      "mantle": 9152,
      "exit": 9153,
      "portrayal": 9154,
      "bristol": 9155,
      "northwestern": 9156,
      "lightning": 9157,
      "loe": 9158,
      "ici": 9159,
      "spans": 9160,
      "engines": 9161,
      "bored": 9162,
      "minimal": 9163,
      "condem": 9164,
      "austrian": 9165,
      "onymous": 9166,
      "laptop": 9167,
      "het": 9168,
      "catching": 9169,
      "rabbit": 9170,
      "kie": 9171,
      "atically": 9172,
      "gaining": 9173,
      "scratch": 9174,
      "hemo": 9175,
      "iranian": 9176,
      "sequel": 9177,
      "antine": 9178,
      "spreading": 9179,
      "occurren": 9180,
      "slav": 9181,
      "ody": 9182,
      "slave": 9183,
      "ambassador": 9184,
      "membr": 9185,
      "bail": 9186,
      "pens": 9187,
      "slovakia": 9188,
      "investigators": 9189,
      "commissioner": 9190,
      "boundary": 9191,
      "bent": 9192,
      "beef": 9193,
      "transmission": 9194,
      "neuro": 9195,
      "attach": 9196,
      "altitude": 9197,
      "waited": 9198,
      "hillary": 9199,
      "complicated": 9200,
      "behalf": 9201,
      "dolphins": 9202,
      "translating": 9203,
      "recipient": 9204,
      "marcus": 9205,
      "isi": 9206,
      "fever": 9207,
      "inum": 9208,
      "seoul": 9209,
      "volunteer": 9210,
      "withdraw": 9211,
      "loch": 9212,
      "removal": 9213,
      "sian": 9214,
      "vancou": 9215,
      "pays": 9216,
      "duration": 9217,
      "preference": 9218,
      "inhal": 9219,
      "jug": 9220,
[...]
